,
.
the
in
of
and
die
der
to
und
a
is
that
zu
for
den
von
ist
on
für
an
with
The
be
mit
das
are
auf
(
)
des
I
-
as
eine
this
Sie
im
it
es
nicht
werden
we
:
have
ein
by
dass
not
wir
dem
Die
&quot;
sich
you
will
which
auch
was
at
from
or
sind
wird
has
als
um
ich
In
can
all
our
oder
also
haben
European
über
so
?
hat
einer
-@@
&apos;
/
sie
!
wie
zur
einen
Union
Das
&apos;s
er
bei
Ich
aus
We
können
your
its
but
am
would
more
one
This
their
einem
been
Wir
It
diese
nach
uns
zum
should
nur
kann
Mr
durch
s
un@@
Der
daß
Commission
very
must
dieser
do
Es
Kommission
de
;
vor
us
noch
there
they
other
EU
like
new
er@@
only
wurde
aber
time
müssen
about
wenn
Hotel
sehr
ver@@
Herr
an@@
sein
man
...
these
President
re@@
S@@
diesem
en
up
who
if
alle
no
in@@
war
Europäischen
any
A
out
mehr
e
Parliament
B@@
k@@
t
te
möchte
o
were
%
people
Europe
into
ten
en@@
s@@
2
ge@@
States
P@@
Member
i
report
bis
such
A@@
what
K@@
eines
need
my
T@@
use
countries
G@@
than
1
t@@
when
C@@
some
gibt
ab@@
ihre
Council
dieses
vom
well
now
D@@
d@@
important
make
work
Präsident
hotel
them
sowie
H@@
most
F@@
be@@
first
many
unter
hier
between
his
f@@
system
take
because
b@@
way
muss
Bericht
Parlament
zwischen
N@@
E@@
M@@
unsere
L@@
da
information
p@@
able
e@@
Ihnen
made
keine
ein@@
g@@
3
support
Ver@@
m
Mitgliedstaaten
y
m@@
An@@
al@@
c@@
he
anderen
had
If
just
years
o@@
those
ing
n@@
&#93;
&#91;
two
Europa
ch@@
W@@
dies
policy
over
where
ts
dann
R@@
immer
Wenn
diesen
me
being
i@@
z@@
aus@@
may
damit
Diese
y@@
good
gegen
wurden
Im
Frau
O@@
end
see
u@@
st@@
world
order
even
right
d
a@@
area
de@@
di@@
habe
Ihre
here
5
unserer
ed
li@@
jedoch
Europäische
4
sch@@
You
same
Ab@@
V@@
ter
v@@
year
possible
Zeit
place
gen
market
ers
part
There
sondern
As
through
ti@@
after
al
seine
neue
could
used
want
political
l@@
therefore
heute
Menschen
rights
bereits
development
10
le
within
For
el@@
mich
economic
denen
sollte
ation
europäischen
ar@@
h@@
own
against
how
ge
ung
si@@
I@@
finden
both
Rat
does
Jahr
then
much
.@@
Be@@
point
international
ohne
zu@@
sollten
ent@@
neuen
or@@
andere
&amp;
ihrer
k
under
find
auf@@
Frage
ri@@
room
Sch@@
public
ate
Jahren
Entwicklung
without
le@@
country
number
l
available
vor@@
zwei
allen
J@@
last
services
great
still
ganz
machen
geht
ro@@
service
Ein@@
fact
say
bietet
different
view
social
Z@@
g
believe
n
free
That
on@@
liegt
already
course
viele
set
um@@
Mit
w@@
Ein
at@@
future
know
Re@@
r@@
too
before
dazu
cannot
j@@
Aus@@
think
jetzt
es@@
weil
Unternehmen
ungen
get
Informationen
products
case
denn
ungs@@
ra@@
Maßnahmen
Lage
sten
wieder
darauf
data
la@@
process
Bereich
level
U@@
c
einige
6
dafür
today
situation
3@@
se
30
rooms
In@@
20
offers
human
p
über@@
bin
go
Welt
schon
But
Commissioner
la
issue
am@@
debate
So
However
2009
her
Dies
day
selbst
seiner
dis@@
th@@
Herrn
quality
Vor@@
geben
te@@
national
mir
sagen
em@@
Er@@
question
per
proposal
el
Arbeit
financial
during
city
meine
wollen
allem
best
viel
ihr
b
All
Eine
example
ihren
means
Our
unseren
ern
high
tes
small
ob
help
gut
said
every
ale
stehen
würde
problem
Al@@
x
lo@@
access
ch
stellen
Für
ische
since
clear
Land
measures
u
particular
Jahre
each
ab
including
7
form
möglich
ated
offer
Wie
etwas
areas
common
agreement
give
Zimmer
long
position
Committee
business
nun
op@@
bar
kommen
ensure
doch
Und
taken
st
Länder
citizens
provide
enden
put
lassen
next
während
few
insbesondere
ste
ischen
energy
sp@@
waren
z
8
4@@
wo
problems
based
systems
se@@
e-@@
again
large
15
Unterstützung
erhalten
ins
On
Zusammenarbeit
further
necessary
et
Rahmen
stay
vote
sehen
liche
x@@
steht
S
back
Ländern
&#124;
shall
Parlaments
come
however
seit
2@@
why
Vorschlag
change
ta@@
con@@
Internet
far
is@@
cooperation
given
security
ert
three
wichtig
et@@
besteht
Fall
ter@@
Art
soll
tun
co@@
Teil
Un@@
hope
h
im@@
politischen
ger
ersten
Problem
Fragen
They
2010
beim
To
ende
it@@
using
der@@
needs
action
ting
Bei
law
located
wäre
while
Bürger
einmal
always
einfach
EU-@@
eren
group
Ziel
Seite
protection
What
With
company
better
down
At
muß
Group
Kollegen
unter@@
50
Namen
us@@
deren
as@@
Community
C
Daten
Recht
dabei
worden
life
Was
And
drei
working
2008
19@@
House
Verfügung
did
letzten
gen@@
große
United
less
legal
lichen
main
programme
ens
seinen
ma@@
System
These
Bedeutung
12
ur@@
ke
men
os
vi@@
wissen
China
Sicherheit
großen
ating
Auf
welche
Stadt
ad@@
Y@@
Möglichkeit
particularly
present
X@@
full
around
When
Ihr
production
bringen
ber@@
Er
current
Auch
land
sh@@
ar
5@@
weiter
real
km
basis
terms
whether
Mrs
special
St@@
open
ten@@
Aber
issues
ja
result
gehen
daher
sk@@
together
Mar@@
f
ent
another
become
trade
Thema
conditions
Probleme
USA
ted
bieten
T
darüber
lich
management
9
site
power
Nach
certain
ly
davon
page
ler
ant
zi@@
ations
au@@
centre
to@@
kein
children
weitere
führen
Con@@
chen
Als
meiner
qu@@
ag@@
companies
aller
Ihrer
Weise
control
Kommissar
various
alles
done
location
Staaten
sowohl
sector
matter
D
erreichen
staff
B
close
ine
2000
old
ac@@
whole
ap@@
unterstützen
really
gi@@
role
könnte
ger@@
region
ck@@
Richtlinie
wirklich
100
natürlich
besonders
E
women
second
respect
specific
sen
stellt
industry
line
especially
budget
Regierung
r
Politik
ne@@
ates
account
Zukunft
state
health
00
water
Service
making
Ar@@
que
den@@
_
experience
verschiedenen
look
Beispiel
ser@@
unser
ous
befindet
möchten
inter@@
ihnen
going
innerhalb
2007
modern
ei@@
ings
Ende
local
bi@@
Kunden
18@@
eigenen
private
Euro
schen
em
resolution
research
mo@@
hatte
rapporteur
Ro@@
vielen
+
Rolle
O
les
*
continue
ol@@
hand
6@@
Weg
days
entfernt
ic
ask
EUR
fully
po@@
regard
gegenüber
German
software
tra@@
europäische
kommt
Ihren
US
om@@
ds
several
Frauen
zwar
25
major
internationalen
directive
something
ges
é@@
wish
Mo@@
itself
name
ere
start
excellent
Alle
000
her@@
du
transport
Meinung
che
rules
direkt
ie
pro@@
ak@@
ul@@
Hier
t-@@
politische
7@@
res
general
-S@@
often
single
Hotels
food
welcome
project
ment
Um
create
so@@
Madam
crisis
Ma@@
Situation
million
Artikel
da@@
away
Ge@@
ding
third
government
gentlemen
subject
Uhr
ans
sen@@
Tag
least
environment
global
money
following
arbeiten
personal
Germany
erste
Treaty
range
per@@
No
towards
ze
Lösung
Zusammenhang
Programm
age
bo@@
8@@
field
ex@@
thank
once
Pro@@
P
Auf@@
&apos;t
Präsidentin
things
institutions
red
off
stand
list
online
nehmen
little
Dieses
unserem
ä@@
He
side
pre@@
Deshalb
Mittel
until
Hilfe
increase
version
ing@@
mi@@
9@@
2006
found
bitte
beiden
quite
opportunity
aid
ken
gesagt
Zu@@
customers
product
par@@
positive
est@@
me@@
ci@@
individual
11
De@@
dort
est
ir@@
forward
Bo@@
agree
Di@@
Par@@
Produkte
len
nen
resources
Members
Co@@
provided
fast
daran
hi@@
approach
standards
amendments
men@@
call
gilt
weniger
40
tri@@
Region
ne
no@@
rather
him
New
price
los
proposals
activities
let
Schutz
Haus
jeder
growth
th
Fraktion
fi@@
Ex@@
a-@@
Grund
ve
Se@@
di
family
Über@@
bzw.
yet
tions
framework
solution
building
points
allow
value
design
.com
ko@@
Software
safety
ts@@
hinaus
Arbeits@@
include
decision
period
text
fen
taking
adopted
interest
gemacht
State
An
nämlich
having
0@@
home
Dieser
legislation
via
technology
light
town
Unter@@
due
progress
halten
Unsere
key
brauchen
might
World
ebenfalls
favour
Aussprache
darf
ung@@
reason
costs
members
wei@@
Um@@
opinion
del
Leben
isch
sogar
Millionen
einigen
times
indem
erte
ö@@
glaube
unterstützt
X
play
y-@@
Punkt
difficult
macht
website
dessen
gute
ladies
F
dürfen
concerned
zen
Website
minutes
sicher
Abstimmung
gu@@
En@@
ster
contact
ot@@
alen
Rates
responsibility
Personen
gt
ber
views
ce
words
After
Kinder
®
application
makes
M
gra@@
24
questions
results
ob@@
provides
behalf
projects
elle
One
etwa
ihn
darin
among
alten
ou@@
öffentlichen
Le@@
18
TV
ally
sche
14
ur
Inter@@
ha@@
ut@@
September
attention
economy
importance
air
ru@@
left
effective
nationalen
groups
R
Qualität
ischer
ali@@
enjoy
ses
Europas
others
betrifft
station
addition
easy
ihm
above
show
Da
schaffen
simply
do@@
keinen
policies
d-@@
Gemeinschaft
Form
International
sollen
Deutschland
fer@@
Ebene
L
&apos;@@
politik
non-@@
ben
environmental
greater
gerade
rate
handelt
Rechte
su@@
art
Lo@@
Restaurant
weiterhin
Bar@@
short
man@@
16
genau
all@@
klar
bu@@
principle
sa@@
nichts
Kon@@
required
complete
jeden
ded
society
breakfast
strategy
meisten
ons
2005
led
setzen
seinem
ho@@
pro
ideal
sti@@
training
kind
Finanz@@
w
wi@@
mit@@
wichtige
v
content
step
Mon@@
solche
sure
2004
authorities
ator
clearly
Th@@
deshalb
Wirtschaft
beautiful
Bezug
mon@@
durch@@
un
ati@@
Ad@@
gh@@
ihrem
deal
achieve
nutzen
ep@@
for@@
pi@@
Zugang
kon@@
du@@
hin@@
essential
Please
nach@@
findet
Dank
house
bereich
technical
Seiten
employment
under@@
sea
statt
address
serious
hoffe
besser
known
Ansicht
tion
zusammen
user
bedeutet
schnell
würden
Umsetzung
Ort
she
Haupt@@
re
called
cultural
weit
Li@@
proposed
meeting
deutlich
Menschenrechte
2001
ago
hei@@
Berlin
ia
Vertrag
ü@@
zurück@@
mer@@
car@@
along
ellen
needed
2003
responsible
13
G
ors
Rechts@@
führt
sei
ra
EN
facilities
nächsten
enough
currently
Kosten
Verfahren
natural
besten
gehört
ene
ven@@
lot
erst
voted
il@@
bring
recht
Aus
and@@
aufgrund
plan
feel
directly
thing
wide
internal
gel@@
ange@@
Windows
comfortable
standard
werde
Verantwortung
dar
bel@@
notwendig
licher
ary
recent
Vorschläge
involved
months
Richtung
regulation
regions
erung
implementation
extremely
please
allerdings
Ziele
ves
solutions
tige
ability
Gesellschaft
longer
Daher
parties
risk
ec@@
Markt
ß@@
Version
car
V
over@@
0
Von
interests
requirements
heart
gestellt
cu@@
Anwendung
pool
Bedingungen
ran@@
IT
friendly
mer
gemeinsamen
cht
Rück@@
Grund@@
La
cases
nature
he@@
voll
fall
ker
changes
guests
ms
developed
Nähe
min@@
bleiben
past
Sp@@
lange
competition
ig@@
ma
verwendet
efforts
ments
comes
November
erten
Grundlage
war@@
beispielsweise
themselves
events
bekannt
bar@@
K
language
10@@
ches
ging
restaurant
democracy
ach@@
Gebiet
1@@
keep
file
Durch
Interesse
hin
ziehen
freedom
force
2002
consider
ca
sprechen
Reihe
sozialen
markets
negotiations
erreicht
pe@@
Möglichkeiten
Demokratie
60
century
Ihrem
live
near
ty
visit
democratic
young
team
tu@@
Debatte
com@@
Neu@@
Or@@
Bau@@
ters
ina
strong
central
vielleicht
tern
ft
eller
upon
vier
network
kleinen
eln
peace
Ch@@
etc
ise
Herren
ni@@
funds
works
Institutionen
never
GmbH
sion
request
Abkommen
regional
Man
wirtschaftlichen
é
Po@@
ff@@
held
Her@@
wer@@
From
either
improve
go@@
April
top
sc@@
Berichterstatter
four
prices
bed
könnten
material
gemeinsame
fundamental
Gu@@
wenig
developing
though
night
Am
Strategie
zeigt
pay
verschiedene
erforderlich
ck
additional
looking
education
reform
history
verfügt
geb@@
true
date
eb@@
Auswirkungen
Presidency
event
oft
Man@@
ausge@@
try
danken
ell
everything
Hinblick
actually
appropriate
accept
seen
unternehmen
Car@@
parts
climate
ren@@
procedure
links
send
care
Verhandlungen
Russia
soon
denke
type
effect
ic@@
sub@@
helfen
mentioned
ermöglicht
liegen
beach
Regionen
Gra@@
understand
space
gegeben
created
Tra@@
Ent@@
ER@@
res@@
Lu@@
mar@@
lei@@
states
card
Dienstleistungen
spielen
meet
person
tigen
situated
Programme
receive
related
Änderungsanträge
20@@
tragen
included
share
Damen
1999
tive
cost
ling
N
Minuten
big
road
pl@@
17
designed
vo@@
einzelnen
thus
How
act
s-@@
Außerdem
bereit
Tatsache
Änderungsantrag
lead
gung
Ko@@
mu@@
är@@
idea
almost
ed@@
tung
darum
ta
living
Geschichte
gesamten
sch
besch@@
av@@
1.@@
Doch
direct
aten
early
writing
ka
hatten
users
Haushalts@@
outside
success
500
test
Zu
80
fragen
workers
according
Ri@@
ure
Tri@@
son
Schritt
sed
eh@@
dern
guarantee
aware
France
tax
majority
later
ie@@
ens@@
takes
total
wegen
hard
certainly
lin@@
table
IS@@
Pi@@
Mitglieder
Com@@
unique
ver
Kolleginnen
AG
bus
liches
doing
Bereichen
ative
$
foreign
amount
Su@@
form@@
up@@
je
book
connection
Wirtschafts@@
ner
Dis@@
hours
gleichen
ways
ph@@
200
existing
mal
features
programmes
communication
ebenso
weiteren
reach
Wasser@@
concerns
bare
Entscheidung
ell@@
pa@@
Ergebnis
jedem
bei@@
throughout
Abgeordneten
www.@@
San
Antwort
week
active
turn
leben
entwickelt
context
final
ori@@
tre@@
run
investment
gs
apply
tion@@
music
committee
Park
significant
hätte
Sicherheits@@
internationale
French
agreements
low
legen
EN@@
ari@@
program
gesch@@
relations
wichtigen
Beziehungen
initiative
tan@@
code
tet
gestimmt
Bu@@
weiß
gleichzeitig
decisions
geführt
My
took
ieren
Vereinigten
ern@@
Nach@@
reasons
Bank
Verordnung
befinden
By
konnte
across
Cor@@
Bevölkerung
concerning
although
AN@@
American
Aufgabe
impact
Government
Gruppe
wa@@
Krise
ance
Ber@@
weltweit
cher
gab
bleibt
Zentrum
ever
Bar
bekommen
und@@
Paris
-B@@
..
Blick
Unser
stra@@
enthalten
term
Bi@@
zeigen
z.B.
Qu@@
perfect
Ausdruck
17@@
Geschäfts@@
completely
meinen
Ru@@
gebracht
Entschließung
gemeinsam
lässt
center
stage
board
moment
Förderung
ders
ER
capital
Erfolg
gern
Bitte
basic
Zum
jede
mis@@
knowledge
Kontrolle
read
jobs
ass@@
ben@@
nothing
Verbindung
rates
kleine
lan@@
ad
ationen
wohl
tor
original
lu@@
files
Geld
Behörden
population
famous
kt
enn@@
internet
practice
19
professional
objectives
allows
out@@
remain
package
So@@
agricultural
fe
ard
Erweiterung
rec@@
heißt
chten
à
Let
Forschung
Seit
Einsatz
16@@
Platz
five
Turkey
Damit
walk
Court
traditional
Israel
ster@@
Sa@@
gel
includes
media
ann@@
regarding
established
Lisbon
gn@@
unseres
cks
community
tischen
body
end@@
2.@@
á@@
Since
customer
partners
richtig
Ho@@
ties
Information
member
gerne
develop
applications
Beitrag
front
English
nice
baren
zeit
web
choice
concern
values
Türkei
No@@
IN@@
reviews
fight
21
performance
integration
Ne@@
quickly
Nutzung
game
built
objective
Lösungen
II
contains
received
reports
=
Preis
Finally
enthält
Mal
wor@@
aim
Projekt
bit
Verbraucher
move
Ausschuss
mehrere
fe@@
15@@
benefit
Minister
check
Rei@@
equipment
equipped
ing-@@
Here
stop
jedes
ES
Y
{
simple
hinsichtlich
Jahres
ys
La@@
fo@@
»
sense
Verbesserung
des@@
neu
model
entire
ermöglichen
70
achieved
Liste
ges@@
holiday
Ausschusses
treatment
clean
lichkeit
verfahren
derzeit
military
lage
Umwelt@@
genommen
guest
potential
22
euro
party
demand
culture
goods
style
leading
dialogue
ps
face
va
Text
For@@
AR@@
fahren
tr@@
prevent
Ta@@
wichtigsten
Ergebnisse
Schaffung
Partner
seems
mp@@
fer
zusammen@@
Mi@@
eu@@
ES@@
closed
ity
fest
consumers
hotels
Therefore
amendment
falls
lack
focus
mm
indeed
Mor@@
Gelegenheit
London
ba@@
note
return
ganze
Darüber
Verwendung
AS@@
zurück
schriftlich
dar@@
Vor
ales
Per@@
wobei
IT@@
ah@@
levels
ganzen
fördern
Wei@@
verbessern
27
agreed
answer
völlig
successful
verfügen
mind
fin@@
image
ant@@
floor
verwenden
mean
Affairs
cor@@
fair
size
co
scher
tig
asked
added
enen
Änderungen
increased
enable
coming
Kar@@
relevant
carried
er-@@
eigene
iert
bestehen
Notwendigkeit
auszu@@
cken
kte
park
einge@@
job
ones
sing
90
W
Some
rund
ST@@
sites
ces
tz@@
sustainable
ry
submitted
presented
fest@@
o-@@
soziale
enter
neben
everyone
shown
entwickeln
tungs@@
matters
au
}
großer
il
principles
rest
RE@@
Wort
ändern
lose
Zeitpunkt
Q@@
meinem
Angebot
treffen
governments
Themen
computer
ana
Woche
E-@@
re-@@
san@@
guten
server
angenommen
Central
press
har@@
AT@@
beginning
May
Initiative
anzu@@
pages
recently
eg@@
East
shows
Vi@@
places
ste@@
gehören
August
hand@@
Mitarbeiter
choose
sorgen
Article
pp@@
Interessen
ier@@
wirtschaftliche
Bild
gar
Du@@
balance
12@@
anderer
els
add
direction
Server
PC
rich
än@@
ats
zunächst
possibility
considered
aspects
effects
suchen
isches
kl@@
tische
tatsächlich
South
Do@@
gleich
promote
nimmt
Barcelona
lines
&gt;
Now
details
Regierungen
einzu@@
23
äußerst
ship
series
higher
June
Gesundheit
commitment
Russland
det
office
opportunities
materials
Of
IC@@
joint
AL@@
setting
Einführung
cht@@
ast@@
actions
double
comp@@
pressure
gas
gewährleisten
travel
perhaps
Amsterdam
ks
id
Me@@
highly
Umwelt
Dabei
speak
prepared
complex
weise
AC@@
systeme
halte
mat@@
reduce
fünf
Japan
Design
Mit@@
verbunden
br@@
forms
lang
Auswahl
Steuer@@
bestimmte
increasing
First
land@@
ore
reached
ving
Booking.com
Land@@
Erachtens
Organisation
ment@@
fordern
später
easily
thanks
Spain
Bekämpfung
gemäß
National
Anzahl
tete
lediglich
priority
pu@@
kosten
safe
bisher
previous
enlargement
search
Tage
half
Erfahrung
Web@@
versuchen
Wert
creation
accommodation
efficient
nuclear
gesamte
America
Au@@
tic
latest
maßnahmen
Mitglied
whose
Fahr@@
Gästebewertungen
status
Team
len@@
response
fallen
funding
14@@
Umgebung
Fortschritte
300
hal@@
somit
ender
Markt@@
external
link
Kampf
providing
came
inc@@
Convention
ano
protect
behind
innovative
Also
ations@@
supported
Familie
Aktivitäten
dy
bestimmten
sive
Spiel@@
Anfang
stark
voll@@
Dinge
en-@@
assistance
ven
hohen
UN@@
meines
por@@
capacity
gesetzt
video
atmosphere
Kultur
Herzen
consumer
Frankreich
versch@@
Bestimmungen
decided
ators
Linux
pres@@
commercial
limited
0.@@
gives
partner
produced
City
instrument
supply
Integration
pf@@
Während
exchange
Kommissarin
Zahl
13@@
regulations
Industrie
al-@@
Prozess
Pre@@
cause
leave
ess
ation@@
net
tieren
col@@
eng@@
Management
innen
DE
charge
ying
El@@
bringt
Sprache
solchen
ausgestattet
sta@@
wer
heit
Fach@@
ang
Wahl
remains
apartment
Gäste
weiter@@
function
civil
eri@@
industrial
Vorschriften
Meer
Mai
berg
genden
sound
Bel@@
option
ort
Dialog
Pa@@
ton
ourselves
pleased
nie
zweite
British
independent
möglichkeiten
außerdem
Punkte
Africa
follow
Wasser
obwohl
oil
ser
H
zahlreiche
stri@@
produce
23@@
Italy
Raum
ist@@
geschlossen
ban@@
discussion
Erklärung
ve@@
enz@@
Hand
leider
aufgenommen
erster
dadurch
gten
teile
Landes
uses
Juni
He@@
property
instruments
1998
creating
steps
Produktion
scheint
restaurants
í@@
ll@@
ies
1.
sto@@
ro
legislative
Stelle
Entscheidungen
Ukraine
Systems
purpose
relation
lagen
weder
Sta@@
frei
S-@@
fishing
mein
organisation
similar
Mehrheit
gre@@
4.@@
December
Sozial@@
distribution
sts
Welt@@
hohe
airport
Web
Iran
Position
To@@
below
gl@@
leicht
Einzel@@
summer
former
the@@
popular
weisen
tem
Am@@
bezüglich
regards
bau@@
Kosovo
message
procedures
Handel
met@@
Daten@@
Lei@@
structure
insgesamt
tim@@
source
Nur
Bereiche
Hoch@@
tiger
einschließlich
EC@@
sm@@
bad
ese
stability
movement
P-@@
compromise
island
rule
EL@@
document
allowed
brought
leisten
programm
fu@@
gro@@
variety
af@@
Gewalt
van
anti@@
Entwicklungs@@
ground
Nor@@
Euro@@
credit
tliche
ente
«
Aufmerksamkeit
paid
Western
Hand@@
einzige
Anforderungen
ade
don
can@@
Wachstum
written
Spiel
Gefahr
conference
tell
UN
Lebens@@
instead
setzt
zweiten
activity
Natur
Por@@
helpful
construction
dung
provisions
Insel
benötigen
Landwirtschaft
distance
Projekte
Küche
35
Stunden
mobile
vergangenen
Strand
January
Services
Investitionen
ili@@
damage
ther@@
Beschäftigung
ism
ler@@
Te@@
sieht
agenda
str@@
payment
,000
Anfrage
gelten
dr@@
tiert
statement
lau@@
führung
Ha@@
film
criteria
eingesetzt
giving
interesting
started
bri@@
study
Dezember
contribution
Ti@@
lung
aufzu@@
lies
dra@@
durchgeführt
quiet
ca.
Frühstück
click
ktion
sur@@
Folgen
Meine
zei@@
Reform
Sk@@
hoch@@
Energie
transparency
tool
Standpunkt
bevor
schließlich
require
March
ful
Regeln
Transparenz
Diskussion
genießen
pen@@
ess@@
download
violence
bra@@
Gemeinschafts@@
documents
modified
ß
Today
kten
extra
General
effort
word
we@@
operation
fa@@
October
Wettbewerb
wichtiger
platz
pass
item
emp@@
gar@@
Berichts
eigentlich
konnten
ines
europäischer
ill@@
Many
Gar@@
Gründen
Room
sel@@
tel@@
treten
chte
Spanish
task
Ju@@
York
express
verstehen
neuer
Jahrhundert
bathroom
ss@@
Rights
getan
zer@@
Furthermore
equal
huge
sagte
draft
Grenzen
OS
U
ble
begrüße
types
base
parking
immediately
ju@@
erk@@
Auffassung
erwarten
Sal@@
Zur
Gi@@
teilen
Museum
Portugal
pri@@
Freiheit
section
März
Person
Personal
Präsidentschaft
Villa
Fehler
benefits
integrated
our@@
aktuellen
happy
wenige
sei@@
tools
log@@
During
labour
aufge@@
Bad
Sache
applied
nor
ums
une
Bildung
reading
ären
tro@@
Republic
Your
mittel
avoid
ino
morgen
Debian
alternative
Ba@@
Development
kurz
apartments
build
Linie
Nationen
ssen
Du
became
Italian
gest@@
elements
aler
größten
consequences
tur@@
allein
öffentliche
beitragen
solidarity
colleagues
met
review
app@@
Although
box
Gen@@
kan@@
assi@@
je@@
weg
Fällen
Bei@@
gende
Center
Heute
goes
Bürgerinnen
ak
entsprechenden
War@@
CD
verb@@
00@@
digital
behandelt
Do
challenges
bs
requires
poverty
drive
billion
erneut
ls
Dateien
July
concept
sofort
stimmen
finally
Ansatz
six
zehn
analysis
got
Amendment
werk
fl@@
berücksichtigt
implemented
useful
1997
fra@@
angesichts
Öffentlichkeit
are@@
del@@
Besch@@
elections
expect
Preise
WTO
school
Bemühungen
zone
persons
illegal
Kur@@
bau
eher
Bürgern
ok@@
Club
Tur@@
bre@@
kt@@
talk
congratulate
lic@@
train
efficiency
San@@
draw
diejenigen
erfolgt
Natürlich
3.@@
growing
stell@@
forces
Sinne
West@@
28
minimum
conflict
26
Januar
hr@@
Wel@@
speed
FR
Lissabon
class
employees
Flug@@
daily
establish
reality
Tagesordnung
tomorrow
verhindern
Rechtsvorschriften
zwei@@
practical
hinter
self-@@
monitoring
St.
Bilder
Tat
@
ski
genannten
bank
Kraft
bl@@
eben
tionen
B.
sports
numerous
official
Ku@@
ron@@
offered
sent
saying
Oktober
North
Präsidenten
ständig
stellung
Änderung
wanted
late
freien
zed
vers@@
organisations
Thank
processes
carry
Party
friends
Lassen
Flughafen
IM@@
hätten
highest
historical
Centre
MP@@
crucial
Chi@@
trans@@
village
Höhe
voting
ihres
lower
mann
terrorism
richtige
Go@@
Jo@@
technischen
größte
Groß@@
Firma
Druck
chen@@
Nr.
geworden
gefunden
pan@@
nahe
vergessen
fre@@
Mediterranean
Business
Behandlung
erungs@@
gend
largest
Monaten
secure
Urlaub
Wi@@
lernen
45
Mal@@
tel
maximum
offering
ke@@
Zweitens
reduction
cli@@
Macht
Restaurants
vertreten
lives
lesen
farmers
Ben@@
ör@@
alt
morning
besondere
Gesundheits@@
volle
rise
frage
waste
mm@@
paar
fine
death
sport
transfer
weeks
comprehensive
Is
Ste@@
Finanzierung
learn
beyond
Op@@
changed
mel@@
gleich@@
bel
Si@@
operating
tungen
caused
star
versucht
Angelegenheit
Tagen
schaft
See
mal@@
email
abzu@@
options
poor
relating
bin@@
Inhalt
RO@@
tik@@
Atmosphäre
äre
ideas
US-@@
Verkehrs@@
Sicht
reference
schließen
wählen
danke
Basis
phone
Datei
historic
5.@@
technologies
verantwortlich
warum
rä@@
king
Tor@@
starting
Directive
anderem
Ni@@
Preis@@
kre@@
Musik
Secondly
Aspekte
Microsoft
zahlen
University
überhaupt
sches
wieder@@
Mittel@@
gesehen
interested
Hotel@@
news
vollständig
ite
Aufenthalt
methods
CO@@
minute
lösen
genutzt
sometimes
extent
verpflichtet
folgen
ce@@
Forschungs@@
shopping
Spanien
sectors
Konferenz
sis
plans
stelle
erfüllen
languages
Even
barkeit
accordance
stands
wine
Den
Im@@
tors
denken
bes@@
entsprechend
gan@@
Ressourcen
anything
stre@@
mention
alone
begin
raum
ris@@
Ra@@
yp@@
jeweiligen
fol@@
gewesen
Viele
geschaffen
Selbst@@
player
ence
oben
probably
published
ya
sor@@
Pal@@
qui@@
method
Benutzer
Italien
Schritte
rel@@
businesses
ready
Energie@@
1996
absolutely
schützen
braucht
gr@@
Ireland
machine
cut
hold
A-@@
era
AD@@
ou
tsch@@
häufig
bur@@
port
Ober@@
endlich
Wochen
Conference
raised
stets
beste
Beginn
clients
Col@@
Republik
Juli
round
edi@@
fun@@
Allerdings
Berichterstatterin
hoch
vol@@
plant
scientific
con
Fi@@
accession
Public
LE@@
Einige
flo@@
modernen
implement
star@@
Erfahrungen
Gr@@
motion
ó@@
tt@@
erfolgreich
sions
sales
1,@@
Dazu
Gruppen
Schwierigkeiten
challenge
players
Ger@@
Vertrauen
2-@@
Funktion
cs
child
Arbeitnehmer
Airport
affected
release
scope
Sport@@
Vergangenheit
Min@@
bessere
powers
fish
street
außerhalb
Werte
Kinder@@
West
erwartet
chance
Unter
zahlreichen
accepted
Kor@@
ness
doubt
anders
1-@@
z.
ungsp@@
bitten
Tre@@
separate
ismus
Hinsicht
fields
wert
Only
worked
fil@@
worldwide
sektor
enti@@
adopt
privaten
Einrichtung
Bal@@
Herausforderungen
Mag@@
selection
long-term
Luft@@
Fund
processing
cal
trying
Austria
ics
ktionen
welches
lin
erlaubt
comfort
genug
nu@@
advantage
hält
walking
Arbeitsplätze
While
persönlichen
on-@@
Parteien
neues
cities
hören
thought
yer
Ö@@
Dann
Bundes@@
Wohn@@
ausschließlich
flexible
win@@
justice
garden
reichen
lost
map
Instrument
ür@@
erklärt
ini@@
folgt
zumindest
month
ality
begrüßen
Wann
Fest@@
images
innovation
Solidarität
vel@@
Wahl@@
sitting
kennen
EC
Moreover
annual
demokratischen
head
ord@@
Produkt@@
Sitzung
enz
Bri@@
Falls
29
alte
e-mail
sting
Angelegenheiten
übernehmen
sum@@
ini
letzte
proper
Har@@
Not
deutschen
negative
ide@@
cally
Erstens
Red
initiatives
OR@@
join
erinnern
Sonder@@
Praxis
gender
RA@@
ga@@
ff
Protokoll
wahrscheinlich
ages
automatisch
Ausschuß
Technologie
200@@
intended
talking
allgemeinen
loss
overall
vorgeschlagen
Stadt@@
mes
vital
menu
gekommen
suitable
Gebäude
tlichen
Opfer
entscheiden
Annahme
Aufgaben
wal@@
laufen
borders
cover
historischen
31
placed
Vertreter
ets
Zusammen@@
President-in-Office
folgenden
Verpflichtungen
son@@
bilden
30@@
Free
Neben
despite
teten
demands
Anstrengungen
²
32
sechs
Handels@@
stress
Spieler
EM@@
approved
schwer
Agenda
zug
zer
Mu@@
kam
expressed
5-@@
target
influence
bewusst
vollen
green
Fre@@
comments
games
IS
namely
ga
Armut
committed
Ser@@
Organisationen
getting
Folge
representatives
medi@@
zudem
heard
strategic
sal@@
correct
Nun
benutzt
bro@@
Karte
Sen@@
eindeutig
PL
pr@@
running
cohesion
Ihres
Denn
ette
dan@@
Kunden@@
Fo@@
More
Enterprise
Kriterien
Security
fac@@
calls
contract
installation
Systeme
stu@@
75
traffic
Its
Staats@@
maintain
größere
Wer
improved
Gegen@@
Computer
vorgelegt
Val@@
beide
abge@@
etc.
unbedingt
Kultur@@
swimming
Ac@@
trotz
ier
Frieden
zusätzliche
mountain
ture
amp@@
administrative
freie
Wunsch
mainly
hen
ien
terrace
ack@@
darstellt
geh@@
cur@@
Natur@@
usually
25@@
structural
critical
iger
automatically
´
reforms
Le
sierung
na@@
rei@@
Google
decide
Hei@@
mor@@
yourself
Binnenmarkt
usw.
lat@@
evening
bald
visitors
ik
Costa
tor@@
Star
Zustimmung
tabled
prüfen
conclusion
sicherheit
warm
gesprochen
Lan@@
Wein@@
gelegen
circumstances
families
bil@@
prä@@
Obwohl
­
moderne
ierung
planning
una
normal
D-@@
Staat
SP@@
Pu@@
cre@@
Funktionen
gte
protected
ET@@
UK
Produktions@@
hol@@
neu@@
dringend
Cas@@
Vereinbarung
2020
Berg@@
super@@
freuen
Ist
gleiche
erkennen
encourage
nationale
relationship
supports
priorities
in-@@
ku@@
überzeugt
ss
Falle
ich@@
unemployment
beginnen
photo
Fe@@
reduced
emissions
Rooms
contribute
Dr.
Privat@@
stable
opening
sted
sources
crime
selbstverständlich
Informations@@
Außen@@
erter
ban
berücksichtigen
border
ai@@
Kunst@@
Gesamt@@
jo@@
serve
Da@@
El
competitive
hinweisen
Verwaltung
covered
cra@@
seines
rechts
kaum
verfügbar
heutigen
Kre@@
wing
entsprechende
rechte
signed
Leute
Kom@@
effectively
Bur@@
Station
3-@@
tics
mission
tlich
ably
industrie
oren
Site
union
stärker
confidence
cker
Ca@@
wünschen
agriculture
SA@@
sage
lich@@
Grand
gebiet
bet@@
zation
currency
Reise@@
delivery
ensuring
zeiten
offen
ear@@
Dar@@
Hause
erwähnt
Ur@@
Online-@@
anti-@@
larger
Code
exist
acc@@
financing
gew@@
functions
ele@@
Gipfel
introduced
Haushalt
generation
Each
iz@@
Inhalte
Terrorismus
Sektor
entspricht
sa
hoffen
°
ast
votes
format
Durchführung
screen
gerecht
senden
ology
lie@@
Sol@@
animals
sec@@
discuss
ish
increasingly
mindestens
pleasant
ole
detailed
gezeigt
verkehr
unterschiedlichen
victims
schutz
Pri@@
US@@
infrastructure
Mat@@
tal@@
sicherzustellen
electronic
Wahlen
Ban@@
regime
aktuelle
mehreren
teil
geändert
kti@@
Why
Afghanistan
prozess
Mitteilung
g-@@
Russian
Anerkennung
laws
tw@@
Schließlich
transparent
Anti@@
ca@@
legt
akzeptieren
Vo@@
01
6.@@
students
E-Mail
Chinese
hu@@
defined
tru@@
Bus@@
leg@@
extensive
getroffen
goal
Pan@@
discussed
beds
rich@@
banks
Zei@@
sha@@
äu@@
enten
erzielt
plants
übernachten
az@@
rein@@
kom@@
Krieg
Produkten
Reformen
min
ft@@
ität
Fu@@
Vorteile
stimme
speaking
tation
fahr@@
manner
limit
served
onen
amerikanischen
purposes
inn@@
else
administration
wesentlich
ical
DVD
Stabilität
technische
discussions
tourist
bestehenden
ously
sign
participation
Win@@
budgetary
alität
schaften
feature
Idee
assessment
wrong
understanding
dri@@
sation
Bor@@
zes
linked
Technologien
ley
reich@@
Nations
tour
400
sufficient
Qualitäts@@
ws
elt
developments
Office
measure
langen
managed
stated
erfahren
cap@@
....
ational
glauben
#
Zunächst
benutzen
Cre@@
ada
Bre@@
umgesetzt
positions
rural
endes
specifically
exactly
born
eter
risks
partnership
Volk
pe
festgelegt
appear
Zudem
ün@@
Bra@@
aktiv
love
Produkt
Em@@
richten
gelegt
notwendigen
post@@
Hu@@
leaders
ergreifen
ns
kommenden
ften
Ä@@
Kern@@
ir
Br@@
powerful
Schul@@
sol@@
enterprises
Just
Standard
Anwendungen
produ@@
erungen
bedarf
Hel@@
ures
Agreement
haus
introduction
fellow
Then
wants
Vertrags
entry
worth
pol@@
Fra@@
las
sion@@
collection
char@@
spacious
arbeitet
CH@@
finanziellen
dienen
EL
whom
regular
Cal@@
guidelines
lä@@
ral
Fer@@
siehe
paper
eingerichtet
says
aimed
j
klicken
lungen
1995
door
warten
shower
ON@@
discrimination
Nutzen
Indeed
played
siert
möglicherweise
möglichen
began
mark
Sti@@
wo@@
Verfassung
Abschließend
Einrichtungen
precisely
zuletzt
Z
tic@@
tä@@
erfüllt
za
IN
wonderful
wenden
Milliarden
laden
besonderen
kitchen
ice
Apartments
closely
Test@@
Lin@@
bestimmt
represents
stoffe
Tier@@
work@@
back@@
considerable
opened
referred
Chance
Kontakt
becoming
Wettbewerbsfähigkeit
ef@@
fri@@
alisierung
founded
Swiss
happen
Über
otherwise
expected
Osten
cing
multi@@
camera
jederzeit
De
ren
fan@@
tions@@
angezeigt
represent
ki@@
Haltung
thousands
anischen
ents
länder
testen
selected
UR@@
strengthen
ved
scale
sicherlich
immigration
nor@@
ase
optim@@
properly
arbeit
stadt
Menschenrechts@@
Ausbildung
police
ame
Greece
syn@@
vermeiden
ßen
è@@
Suche
Iraq
track
handeln
DA@@
C-@@
Standards
Gel@@
Straße
val@@
Besuch
zeit@@
ple@@
programs
Augen
cal@@
Partei
teil@@
Prozent
trägt
LA@@
shop
Social
Mark@@
stand@@
facing
earlier
At@@
deten
50@@
Kal@@
geeignet
dient
unver@@
gs@@
ars
anderes
&apos;ll
Unfortunately
supporting
white
People
Schutz@@
PT
Monate
Sea
markt
na
cia
Roma
rent
Leider
tn@@
rit@@
institutional
Mc@@
Policy
globalen
Instrumente
Can@@
Vielen
Nicht
telephone
rü@@
improving
metres
Rec@@
lt
verfolgen
150
erzielen
lar
coordination
spe@@
Click
Medien
networks
provision
likely
fresh
Mitgliedstaat
Sommer
ek
sets
stat@@
fla@@
com
reception
Berichte
schreiben
medical
verbessert
Zeichen
went
plus
nachdem
marketing
inside
Fin@@
spend
vorgesehen
wahr@@
Nachfolgend
Regelung
euch
Plan
Kenntnis
betonen
gkeit
Installation
Kindern
hear
Anspruch
operations
gelangen
zing
funktioniert
stärken
Green
remember
Nord@@
degree
shi@@
klare
co-@@
connected
Bas@@
record
erg@@
uni@@
fisheries
fahrt
difficulties
daten
followed
Warum
save
acts
voller
gener@@
rat@@
bal@@
cul@@
Energi@@
Initiativen
DI@@
vari@@
February
Abgeordnete
Webseite
dlich
Human
purchase
Dra@@
broad
Frankfurt
han@@
entschieden
Wieder@@
reasonable
erstellt
Vielfalt
Sprachen
Ka@@
hour
oo@@
informed
Nieder@@
element
Verwaltungs@@
tradition
gang
Most
24@@
poli@@
om
Tätigkeit
losen
ausdrücklich
Klein@@
lig
components
cas@@
außer
presidency
client
animal
erenden
Forderung
items
erhöhen
Not@@
Jetzt
net@@
high-@@
möglichst
far@@
path
IP
refer
ay
stei@@
dealing
shops
zentrum
schutz@@
elegant
e.g.
Familien
applies
playing
informieren
person@@
ara
http
Economic
vision
ration
Innovation
aff@@
elles
politischer
jeweils
She
Stimme
Bild@@
generally
parliamentary
trust
ev@@
ach
Medi@@
IL@@
Pol@@
consideration
entirely
Abschluss
mark@@
bodies
bes
gefordert
Wege
Kan@@
liber@@
tourism
welcher
teilweise
att@@
experts
beschlossen
fällt
Bet@@
buy
cards
competitiveness
Because
vorhanden
cher@@
wären
wollte
Veränderungen
nis@@
konkrete
hel@@
income
werte
unbe@@
summit
ckt
entweder
Meter
dagegen
Vol@@
buildings
houses
Menge
blo@@
Wor@@
Switzerland
fung
richtigen
winter
genannt
ction
Stand
actual
NATO
freue
exclusive
High
Klicken
Gro@@
Brussels
mittel@@
essen
well-@@
Leistungen
prior
ka@@
ig
spielt
lichem
Vereinten
Dienste
average
rop@@
don@@
benötigt
combat
ised
select
nisse
fort@@
Familien@@
spirit
season
bek@@
Breakfast
Angaben
erfolgen
fixed
Einfluss
gem
gave
speech
Video
thinking
Garten
speziell
spar@@
sam@@
besuchen
War
le-@@
database
Firstly
I-@@
Transport
authority
meetings
jene
Schweiz
gewährleistet
hor@@
ersch@@
condition
seem
Cam@@
ID
Super@@
display
vehicles
ement
Konzept
durchaus
Post@@
lö@@
Gebieten
tures
Sub@@
Antrag
flexibility
mente
Arbeiten
Once
coffee
pul@@
presence
bedingungen
7.@@
Währung
stock
Char@@
CA@@
cy@@
ha
Sh@@
numbers
ße
imp@@
ll
finanzielle
Gesch@@
Met@@
India
cuisine
digen
aspect
Best
difference
täglich
darunter
sun@@
Tran@@
origin
Middle
wider@@
Teile
Ausgaben
machines
Dennoch
pat@@
lokalen
Ski@@
eingehen
Gal@@
hervor@@
stan@@
humanitarian
Research
propose
Zeitraum
burg
stellte
easier
wood
Ü@@
ass
Sehr
ado
lands
Terrasse
Board
Spa
Vergleich
estate
plan@@
Guest
Stellungnahme
33
Comp@@
tisch
inen
ik@@
erstellen
ME@@
tät
med
Modell
sse
wenigen
zentrale
rat
Einhaltung
darstellen
ti
konzentrieren
erleben
seriously
nt
aims
availability
peaceful
Wer@@
sieren
Ak@@
ungs-
permanent
appears
feld
Ziel@@
acht
typical
myself
establishment
Hauses
stone
Herausforderung
mü@@
fied
95
spor@@
Pap@@
Engagement
Very
flu@@
geleistet
überprüfen
angeboten
Komfort
ey
absolut
Asia
tätig
detail
fund
reservation
ists
hot
Programms
entstehen
fun
geschehen
dliche
differences
2011
experienced
ark@@
isch@@
cat@@
schwierig
fs
Zeit@@
diskutieren
Forum
structures
dennoch
told
zen@@
Bürger@@
picture
uren
tere
Zweifel
Zeiten
Zweck
His
Prä@@
Tro@@
ware
duty
practices
Gas@@
Achtung
MA@@
promoting
charged
producers
unacceptable
Plat@@
Private
stes
Einigung
Internet@@
erklären
implementing
Herstellung
gabe
character
defence
forget
spon@@
becomes
Dec@@
ah
haft
ordnung
és
buffet
Worte
Paket
carefully
sides
Res@@
ye
Gleichzeitig
unterschiedliche
inform
Werk@@
ato
Druck@@
Beitritt
id@@
feststellen
kur@@
fying
hon@@
fel@@
Besucher
Irish
Fonds
äl@@
balanced
Czech
criminal
attempt
Februar
0-@@
unabhängig
concrete
Wal@@
introduce
Kunst
einiger
recommend
Aspekt
Fischerei@@
reducing
break
nächste
associated
ged
unten
achten
spent
erende
All@@
Forderungen
ently
veröffentlicht
übrigen
gewinnen
ack
Name
lia
zimmer
starke
Aufnahme
Film
ants
gek@@
gruppe
weight
Regel
hab@@
Des@@
booking
adoption
schönen
sagt
session
Prioritäten
Stellen
erscheint
Ap@@
Download
Madrid
Kingdom
grounds
ahead
statements
Geb@@
courses
ships
Golf
98
ths
gruppen
happened
Gemeinsamen
Dokument
zo@@
hingewiesen
Spezi@@
improvement
impossible
post
Liefer@@
ire
Pas@@
flow
models
chs
uri@@
reicht
threat
dangerous
dro@@
Belarus
respond
anyone
agencies
web@@
si
gestalten
phase
Tu@@
packages
angesprochen
Christian
99
According
Lesung
advanced
Analyse
guarantees
AB@@
Stra@@
Auto
läuft
Status
monetary
geln
sign@@
won
core
advance
regionalen
igen
lungs@@
Wissen
od@@
Rede
arten
fle@@
domestic
Mitte
tt
Sorge
Links
48
trip
k-@@
shared
continued
south
Bro@@
arrival
Geschäftsordnung
Meiner
folgende
so-called
halt
Arbeitslosigkeit
betrachtet
studies
Klima@@
oc@@
Geld@@
rin@@
installed
analy@@
ko
names
dete
verfolgt
Great
changing
Entwicklungen
kulturellen
uner@@
unterstütze
ination
suite
ends
Agrar@@
unfortunately
calling
ched
Irak
genuine
ian
ours
gem@@
immediate
Stu@@
instance
gri@@
Problemen
geschrieben
Santa
ba
Multi@@
empfehlen
persönlich
gene
Stärkung
Regelungen
ländern
dank
Kno@@
Rechnung
Irland
34
ingen
heraus@@
gain
sensitive
Mess@@
resort
pictures
Hor@@
cars
Tour
obtain
Österreich
Poland
gutes
failure
keeping
kosten@@
Großbritannien
Kommunikation
Vielzahl
ine@@
Online
gegenwärtig
voice
strongly
gers
debt
wishes
Hintergrund
ath
Every
reg@@
cking
ater
consumption
learning
Del@@
Richtlinien
politics
relax
keyword
vorliegenden
zz@@
sischen
geschützt
erforderlichen
gef@@
raise
ang@@
tage
Street
combination
umfasst
spiel@@
print
lo
anlagen
amen
eingeführt
evidence
Cap@@
,@@
win
Mis@@
greifen
clo@@
cke
profitieren
Arten
einsetzen
sale
Griechenland
liebe
trading
air@@
possibilities
pre-@@
Sie@@
article
36
Star@@
Überwachung
rus@@
kaufen
fore@@
John
Priorität
passed
sort
pla@@
Beschäftigungs@@
comment
unless
positiv
Sport
ona
Trade
contain
garantiert
recognition
fähigkeit
fire
registered
ausreichend
elected
attractive
truly
keinerlei
weiterer
ehr@@
beaches
cy
relaxing
AM@@
devices
4-@@
tasks
signal
Sur@@
Europeans
Abend
verlassen
fordert
participate
vis@@
Health
ker@@
ery
finance
ited
Partnerschaft
listen
district
wel@@
Open
comm@@
Betriebs@@
ory
wall
Can
stein
rück@@
allowing
Mac@@
aufmerksam
ct
miteinander
hands
sionen
sichern
seek
Bewertung
exc@@
län@@
install
Justice
Grenz@@
einander
kept
glich
felt
completed
ella
ely
les@@
dor@@
reliable
seite
nahme
television
steigen
My@@
gegenwärtigen
ISO
color
definition
Elemente
erhält
figures
opposition
tten
demokratische
führte
heiten
lie
Pe@@
Mer@@
released
translation
zufrieden
wirtschaft
--
dre@@
sters
enables
spricht
ologie
Ja
bit@@
ki
urgent
Fortschritt
Fuß
Verpflichtung
totally
off@@
37
Open@@
Net@@
nearby
gegründet
ica
sämtliche
sli@@
pra@@
Bedürfnisse
Hersteller
meters
button
lets
werke
dungen
dec@@
God
sum
Angesichts
Mio.
closer
sou@@
ate@@
ID@@
skills
Gesetz
komplett
schul@@
Adresse
PHP
England
ring
Such
bear
fälle
Another
Universität
window
Indi@@
lig@@
Ei@@
Voll@@
himself
tests
Nevertheless
Jeder
Entwurf
ner@@
Association
absolute
großes
asylum
Mas@@
manage
de-@@
river
membership
club
sten@@
continues
beteiligt
1994
System@@
election
Formen
Betrieb
interface
regi@@
Air
Sehenswürdigkeiten
ziert
African
tiges
gebaut
2.
groß
Stil
spezielle
garantieren
Afrika
convinced
firm
Trans@@
insurance
Moment
Entschließungsantrag
Hal@@
umfassende
Mitteln
Verkehr
Lie@@
ECU
asi@@
territory
mehr@@
nationaler
accessible
gelöst
exercise
conclusions
bas@@
Erklärungen
Player
einfache
welt
Beschreibung
größeren
Are
offensichtlich
ising
Maße
zeichnet
surface
storage
führenden
economies
mail
mental
update
ulation
besitzt
Sinn
eck@@
Jahrhunderts
wesentlichen
Pra@@
described
ash@@
Inn
surrounding
länger
finde
enormous
MO@@
combined
architecture
ancient
religious
Absatz
controls
Brüssel
65
ertes
Dom@@
tend
Agentur
Nacht
600
drawn
announced
Prinzip
Kirche
ty@@
Wa@@
stattfinden
books
Cro@@
schöne
Bio@@
granted
rufen
überall
zeichen
honourable
ständigen
arian
Zwei@@
cle@@
forced
nom@@
court
bars
payments
werk@@
Leistung
device
dad
trag@@
unable
export
solcher
bath
standing
Pakistan
mittels
dé@@
oh@@
chi@@
Süd@@
greatest
ige
commitments
danach
remind
Gei@@
&apos;re
mati@@
Note
rightly
SO@@
extended
kostenlos
AG@@
ambitious
As@@
mögliche
guide
fear
bor@@
sta
beginnt
Kraft@@
Ideen
bestätigt
expensive
wasser@@
ingly
hergestellt
Polen
Gründe
moving
ath@@
Fran@@
write
individuals
aren
rechtlichen
beinhaltet
tens
Men@@
desire
establishing
organised
übertragen
Mann
Last
obviously
Größe
cm
candidate
oni@@
holidays
lag
internationaler
institution
s.@@
brand
advice
compared
Beteiligung
Barroso
Globalisierung
monitor
advertising
Umfang
Pat@@
Treffen
sonst
Märkte
Spe@@
leistungs@@
one-@@
Home
leader
asking
End@@
sun
Fl@@
bt
Turkish
onto
Unterkunft
Plan@@
istischen
stehenden
Ki@@
d.
port@@
technik
reisen
gelungen
hom@@
Empfehlungen
valid
spending
piece
furnished
Seine
Uni@@
pos@@
initial
Aktionen
lige
perspective
disease
l-@@
Kompromiss
paragraph
Eastern
informiert
IR@@
kers
ering
w-@@
Gast@@
beachten
dedicated
sho@@
wirken
tly
entsprechen
tom@@
iti@@
contrary
mag
failed
nis
Rot@@
entitled
factors
800
pal@@
black
che@@
railway
punkt
abgeschlossen
schi@@
middle
cri@@
assen
Netherlands
zusätzlich
Technik
Gebiete
binding
coast
stor@@
contents
einverstanden
vier@@
engine
Flexibilität
Regulation
9.@@
achieving
Sil@@
vit@@
limits
französischen
register
haften
Tradition
schlagen
speziellen
targets
Prime
colleague
AL
band
ological
luxury
JavaScript
mb@@
Innen@@
zeu@@
Manager
obligations
á
55
Control
reden
background
route
dat@@
cl@@
Beihilfen
rechten
claims
dienst
38
sobald
campaign
host
Worten
nennen
recommendations
Grundsatz
istische
-F@@
convenient
medium-sized
Data
gegangen
Durch@@
memory
neither
bli@@
Eindruck
Fraktionen
older
attractions
MS
zählen
contained
ion
Welche
stic
gehalten
expenditure
Lam@@
Musik@@
guter
outcome
tried
laid
platform
42
perfectly
betrachten
Eing@@
Resort
erfordert
chosen
Option
anten
prevention
Anteil
daraus
führ@@
ically
geschieht
fall@@
attack
dly
alter
Bildungs@@
Methode
Schlüssel@@
maintenance
rau@@
Rom@@
geöffnet
Haup@@
dy@@
h.
dos
Europäer
Kenn@@
Hinweis
Fotos
flight
vorgeschlagenen
art@@
atory
Casino
tier@@
situations
Dor@@
Foreign
Mitgliedern
Yet
acceptable
Ereignisse
stations
unto
Ter@@
to-@@
betroffen
Rules
square
bul@@
relativ
existence
ances
constantly
wind
promotion
Aufbau
yesterday
Thus
Niveau
kes
mechanism
ick
pun@@
Kat@@
fern
zung
verloren
Motor@@
continuing
Patienten
operate
Hol@@
wil@@
ligen
sem@@
TR@@
Hi@@
Verständnis
berei@@
equality
erhöht
advantages
Hamburg
betroffenen
para
Studio
Hin@@
08
Grunde
starken
science
allgemeine
Anlagen
beauty
Wirkung
Voraussetzungen
museum
festgestellt
Aussicht
successfully
wunder@@
agency
tin
setzung
etz@@
Beim
ports
Sprach@@
ue
Lake
Far@@
ined
val
Klimaanlage
Kritik
weapons
vehicle
Minutes
legung
water@@
0,@@
an-@@
Altstadt
bildung
hof
Dem@@
intervention
Ã
We@@
Mindest@@
Pen@@
Summit
stoff
fach@@
Gesetzgebung
fit
zuvor
28@@
obvious
saw
discover
te-@@
09
Kl@@
Greek
sell
Botschaft
putting
tig@@
conclude
seh@@
chan@@
testing
Ir@@
Those
Weitere
deliver
intensive
alismus
fy
corporate
hauptsächlich
Wettbewerbs@@
7-@@
kraft
qualified
nachhaltige
dimension
unit
Prüfung
yst@@
Ost@@
factor
adequate
Any
fonds
texts
Foundation
ands
Versch@@
nations
organization
sel
satz
aci@@
squ@@
pointed
Bedarf
Vertrags@@
Dimension
Vienna
Kontroll@@
Deutsche
ining
waiting
straße
bahn
Bis
kannst
Doppel@@
96
browser
britischen
Tit@@
consistent
Risiken
Realität
ON
Meeres@@
wagen
Nutzer
TH@@
tal
planned
mobili@@
8.@@
ero@@
tar@@
approximately
2,@@
capable
fen@@
manchmal
vers
indi@@
Indien
Zahlungs@@
schafts@@
Mel@@
expression
someone
goals
eigen@@
tional
fication
produktion
karte
alised
listed
Both
Gegenteil
causes
regeln
compliance
Phase
species
trifft
touch
Unternehmens@@
las@@
EF@@
registration
persönliche
National@@
responsibilities
Palace
Teilen
ek@@
ön@@
07
x-@@
versions
Überprüfung
ía
bringing
evaluation
store
Risiko
atic
Gegensatz
Vorteil
Agency
Syn@@
97
Inseln
Koordinierung
ante
Reise
independence
treated
posi@@
Austrian
Federal
regelmäßig
utili@@
sat@@
mountains
consists
ning
smaller
extend
O-@@
ischem
communities
Monat
substantial
inform@@
Farb@@
ward
Diskriminierung
bedroom
Dienst
discussing
Environment
merely
einzigen
Projekt@@
tical
exhibition
ink
ideale
rech@@
bekannten
u.
stoff@@
fiscal
echte
staaten
6-@@
lon@@
ierten
spaces
Hoffnung
surrounded
wider
liste
lake
north
los@@
tz
story
seeking
ust
disposal
Market
Michael
Zahlen
governance
Nachdem
Card
besseren
delay
Erhöhung
read@@
Sor@@
yl@@
m2
category
tab@@
fällen
addressed
Sweden
massive
Nu@@
guaranteed
vo
Palestinian
satellite
foot
Beach
Angebote
remove
requested
Liberalisierung
mas@@
claim
schneller
Zimmern
Institute
bewegen
gets
Königreich
cent@@
leads
diskutiert
photos
church
xi@@
deutsche
strengthening
beschäftigt
Start
publi@@
Ebenso
SI@@
pas@@
Nice
Erde
SE@@
Bestandteil
fühlen
zw@@
examples
Details
loc@@
Located
Flu@@
Han@@
44
anbieten
ierte
sicherstellen
biggest
lar@@
Other
tsp@@
ausschuss
physical
fic@@
Haus@@
Banken
sprache
verk@@
jüngsten
mass
ther
stoffen
sions@@
vollkommen
Einkaufs@@
staatlichen
fte
entgegen@@
Na@@
genen
harmon@@
ett@@
Fälle
Methoden
nation@@
dealt
denk@@
wichtigste
welchen
ester
Rau@@
migration
origin@@
object
1992
looks
reagieren
herzlich
technological
outstanding
Mand@@
Q
recovery
stru@@
praktisch
aging
sicht
Comm@@
arms
Tal@@
IG@@
resulting
ching
Tages@@
Teil@@
trä@@
mode
ktions@@
Poli@@
ord
äch@@
zogen
Hon@@
kel@@
wait
aufen
vern@@
block
Ratspräsident
urge
umwelt@@
Fol@@
dynamic
run@@
determined
bezeichnet
einzelne
amm@@
explain
cou@@
chs@@
i.e.
bauen
politisch
ol
fort
stimmt
Mil@@
spezifischen
ch-@@
Gre@@
Off@@
zustimmen
rapid
ot
Format
Rome
wh@@
Titel
Tiere
AS
spezi@@
audi@@
Unterschiede
race
einerseits
räume
ée
orders
Generation
Öl@@
patients
Firmen
ei
notice
gezogen
Aussch@@
deep
down@@
64
hafte
gewählt
Struktur
spread
liability
jungen
serves
rail
wn
Holz@@
fuel
Städte
iel@@
schön
participants
reali@@
wodurch
III
Dokumente
brings
consensus
Farben
Time
weiteres
seitens
Pool
nochmals
plat@@
Anpassung
Island
Media
minim@@
Is@@
Fisch@@
Beifall
spezifische
driving
Veranstaltungen
Latin
ländlichen
Volks@@
previously
akzeptiert
optimal
Sonnen@@
Infrastruktur
früher
ssi@@
industries
Dollar
diversity
Tex@@
ables
Vorbereitung
Thanks
noise
Shi@@
Klimawandel
eck
copy
primarily
High@@
fron@@
miss@@
Formular
damals
quick
Ruhe
consultation
Fa@@
positiven
tter
competence
.de
boo@@
Unabhängigkeit
41
onn@@
Atom@@
spiel
affect
alism
bezieht
Energy
führer
rep@@
dge
steel
Waren
Winter@@
Umständen
speakers
Vom
Rad@@
Regi@@
Laufe
stabili@@
seven
Democrats
betont
attacks
fur@@
EG
Hälfte
talks
ins@@
Verfügbarkeit
Charakter
prepare
manufacturing
artists
Auto@@
T-@@
Gesetze
Material
liefern
Aufgrund
Sar@@
19.
stellungen
bereiche
temporary
abhängig
kinds
angeht
conduct
ge-@@
entered
glass
junge
primary
woh@@
Trotz
landscape
aircraft
turned
nearly
minister
Delegation
etten
Dadurch
refugees
übernommen
leiden
Diskussionen
pleasure
default
gewisse
Willen
Out@@
IF@@
cho@@
aries
fi
reply
mechanisms
F-@@
investments
befassen
improvements
jährlich
Bus
intensi@@
Bay
lang@@
Gästen
frei@@
tag
multiple
unternommen
Gri@@
cru@@
valuable
Enjoy
Netzwerk
radio
wir@@
Bedenken
anda
sanctions
NL
Übereinkommen
soft
zugleich
Anliegen
Link
gone
accounts
Before
sy@@
bedrooms
Ansch@@
sup@@
derzeitigen
Lebensmittel@@
requests
Männer
Kollege
Suite
recognise
nte
Telefon
pension
strategie
regret
.00
sam
Grundrechte
eng
websites
representative
49
bequem
gas@@
gol@@
association
Eigen@@
controlled
ED@@
Politiker
bot@@
schools
Sel@@
Nicht@@
Ausland
WC
oral
Air@@
entwicklung
Such@@
recommended
approval
skin
menten
anz
thereby
beziehen
barer
delegation
kar@@
ced
Vielleicht
forest
kürzlich
Tr@@
p.m.
behandeln
mutual
wichtiges
Landschaft
gestern
bers
Antworten
THE
verlangen
fand
bericht
hau@@
andererseits
willing
Ul@@
Square
lots
kin@@
rechts@@
Verhältnis
VI@@
title
hostels
regionale
basiert
bung
Internationalen
delivered
traditionellen
Kri@@
ñ@@
Romania
Pl@@
letter
Winter
Prodi
forum
Ordnung
cies
05
Dutch
Licht
ergeben
breite
Sanktionen
amongst
golf
ppen
Grundsätze
spa
Voraussetzung
Stadtzentrum
Landwirte
gemein@@
verstärkt
Apartment
43
Handel@@
Constitution
yn@@
verlieren
betreffen
emphasise
konkreten
gent@@
asse
obligation
ari
cheap
van@@
zählt
Despite
arbei@@
multi-@@
ausschusses
Emp@@
47
temp@@
Pro
Company
fruit
Mehr
1990
nötig
substances
Jahres@@
explo@@
serviert
highlight
privacy
Royal
drugs
enter@@
opposite
respective
alist
Strategien
manufacturers
PC@@
ut
Hauptstadt
Teilnehmer
Beh@@
solve
Einklang
alle@@
ctions
extreme
tenden
compensation
globale
EP@@
gesellschaft
represented
1993
error
comply
Rule
fal@@
Paper
fill
Alliance
dest@@
Express
Stunde
moved
by@@
Grenze
Schäden
Support
decades
Leitlinien
anerkannt
feeling
dritten
Back@@
exp@@
cross-border
Berücksichtigung
visible
sia
contemporary
Bahnhof
behörden
ay@@
keiner
dol@@
soweit
nden
250
length
Zugriff
Zustand
berühmten
8-@@
ous@@
Ham@@
haltung
Festival
demo@@
kor@@
Anfragen
identity
Peter
Maßnahme
wiederum
Teilnahme
resolve
begann
Prin@@
Brenn@@
46
wards
Design@@
ET
marked
lauf@@
buchen
helping
195@@
faced
Anlage
esen
Schengen
sm
attitude
AT
Nutz@@
tritt
tte
ye@@
Mein
fraud
Süden
Kunde
bildet
urban
höchste
exists
Mau@@
Untersuchung
southern
Effizienz
Fischerei
knows
covers
olo@@
parti@@
hinter@@
presentation
Standard@@
dlichen
bezug
diverse
Verträge
mut@@
rejected
Gefühl
tain
Begriff
resi@@
jährigen
Fern@@
künftig
X-@@
finding
umfassenden
runs
atives
extension
m-@@
Wirtschafts-
dem@@
eli@@
jahr
aktive
taste
3.
Freude
atische
Kosten@@
Hostelsclub
Safety
Absch@@
Straßen@@
vielmehr
Versuch
trotzdem
significantly
mar
Ministers
destination
Martin
Freunde
Datenbank
renewable
el-@@
Kli@@
meaning
0er
enst@@
ING
85
tour@@
Ferner
articles
suffering
st-@@
hilft
except
Reaktion
helps
ball
Definition
dienste
OL@@
Struktur@@
IB@@
arrangements
z-@@
Two
PDF
set@@
zieren
relatively
ken@@
lab@@
ly@@
The@@
angemessen
Innen
operators
emphasis
ata
Pf@@
dig@@
locations
EU@@
OT@@
mäßig
Financial
acting
Wander@@
appreciate
discovered
genauso
dom@@
Kombination
Leistungs@@
charming
Serie
fighting
Eigenschaften
ziemlich
werfen
Lau@@
wers
units
Industri@@
ktive
GB
shape
Plaza
Allgemeinen
tex@@
Book
mitteln
Korea
02
named
Agrarpolitik
gungen
trees
wen@@
directives
my@@
Studie
Verbrechen
vous
Lehr@@
PS
mil@@
ard@@
öh@@
elled
hoher
Liebe
dic@@
all-@@
wn@@
recognised
CO2
appeal
sper@@
dinner
personally
26@@
qualität
installiert
expertise
interpre@@
ked
Völker
Ther@@
39
Ren@@
Use
Sam@@
parallel
mobility
kleiner
dir
taxes
author
sold
gens
Karten
bus@@
ruhigen
latter
ze@@
Charter
Pic@@
tigkeit
erin
höhere
spot
intention
nation
lieren
applicable
wesentliche
profit
Mul@@
disaster
freundlich
gespielt
Badezimmer
RO
sian
assist
ül@@
handling
tau@@
micro@@
experiences
ming
Ara@@
zusätzlichen
zufolge
Techn@@
Chamber
seien
naturally
boat
log
Spiele
furniture
21.
Schaden
dungs@@
Where
tik
Fort@@
ré@@
IP@@
sieben
danger
constant
xes
discharge
jemand
Körper
03
burden
combating
unge@@
grün@@
3D
niemand
produkte
healthy
Fähigkeit
happens
engineering
constructive
06
wealth
Take
temperature
chter
Geist
Foto
Swedish
willkommen
involving
proof
ernst
Aqu@@
schätzen
White
ständige
Industrie@@
Verbesserungen
strength
Ob@@
deb@@
centres
rie@@
affairs
inv@@
linie
automatic
cer@@
Mikro@@
schwierigen
20.
Ohne
expectations
ress
hilfe
sorgt
bio@@
interessiert
Unternehmens
Führung
Pres@@
gefördert
sinn@@
Netz@@
Letz@@
Bewegung
Währungs@@
whilst
schließt
ri
Normen
quote
karten
producing
Schweden
wesen
Fri@@
weshalb
aktivieren
Via
Global
ai
Shop
Gott
launched
fantastic
suggest
nung
ping
diseases
menschlichen
ular
eiten
preis
ç@@
western
kli@@
tours
hy@@
ón
AU@@
preis@@
ola
Verhalten
objects
rasch
marks
Mehr@@
reserve
tut
Gol@@
hängt
ared
Geh@@
dishes
pen
protecting
drawing
gegen@@
Raum@@
begonnen
info
audio
Vil@@
zweifellos
Küste
tem@@
mandate
schei@@
equ@@
Menschen@@
removed
verändert
Materialien
dining
Dan@@
lam@@
truth
opposed
erhältlich
Welcome
lovely
best@@
fähig
confirmed
Good
reflect
techn@@
Absicht
eins
zt
näher
f-@@
Tagung
ble@@
esti@@
stehende
happening
Mus@@
eigenes
Cli@@
exclusively
mitten
Weiter@@
heraus
ought
Kann
Schule
Maria
ehemaligen
Ratsvorsitz
passengers
Auftrag
USS
Gedanken
sofern
Ladies
Strategy
Kauf@@
Empfehlung
dig
stro@@
historische
CS@@
wissenschaftlichen
fr@@
password
besitzen
Norden
120
Wider@@
700
bon@@
dert
couple
wünsche
Paul
grundlegenden
Websites
Friedens@@
ppe
Gentoo
Einstellung
profile
Entwicklungsländern
bing
fordere
Beispiele
zus@@
Dort
sky
figure
decorated
Bat@@
GNU
Rat@@
Rechts
Rol@@
gert
master
pose
Ambiente
obtained
ane
Kind
LO@@
Power@@
dene
nten
treaty
fail
erscheinen
Sitz
walls
ater@@
helped
Abkommens
bemüht
Tod
Sha@@
Prof@@
waters
determine
Beratung
balcony
assure
lec@@
Dublin
holding
Fenster
öffnen
Harmonisierung
charges
ks@@
fassen
sh
politicians
3,@@
User
watch
command
Video@@
alo@@
maintained
berechtigt
getragen
Test
aly@@
heavy
resolved
schen@@
cam@@
prove
load
zunehmend
Bush
Englisch
Dusche
erheblich
tre
ams
Van
equally
glichen
teilnehmen
perform
Rel@@
Stat@@
output
separ@@
resolutions
Militär@@
bedeuten
Vit@@
kämpfen
rapporteurs
brechen
Hau@@
Essen
eti@@
Ph@@
Hostels
mentation
beträgt
cycle
involvement
verlangt
fies
restrictions
Pflicht
criticism
ativ
ises
ile
repeat
Pop@@
zuerst
Ci@@
aro@@
Strukturfonds
lay
zy@@
cold
Wien
Strukturen
Problems
liberalisation
blu@@
Instead
10.@@
offenen
requirement
Buch@@
brief
1000
Kol@@
whatever
eröffnet
Roman
Verkauf
amounts
Klima
pping
define
ghts
intend
schnelle
Je@@
kurze
aufzunehmen
hervorragende
opinions
Procedure
q@@
Angriff
peoples
Rou@@
niemals
offices
tran@@
tou@@
Mak@@
Berufs@@
ativen
Munich
Architektur
Überzeugung
USD
neuesten
Schi@@
USB
leadership
nam@@
betreffenden
largely
Day
not@@
Erwartungen
kulturelle
blog
Stellung
ergriffen
manager
weisung
starten
formen
systemen
ener
mei@@
leaving
Alternative
leisure
Änderungsanträgen
Bau
unmittelbar
counter@@
Fernseh@@
Buch
durchzuführen
Cu@@
lebens@@
Lord
proved
Punkten
increases
abgelehnt
preise
ligh@@
staatliche
River
Ausstattung
millions
behalten
zugänglich
erweitert
Fil@@
preparation
vorzu@@
27@@
Amerika
lan
Wahrheit
Regierungs@@
gratulieren
medium
sehe
meat
streets
chain
MEPs
seeing
Nachfrage
umzusetzen
italienischen
ausgezeichnete
ered
Gener@@
entdecken
entscheidend
eye
Flash
offen@@
strategies
zieht
Mittelpunkt
gsten
ffen
allgemein
Reg@@
gener
spanischen
ê@@
urs
exceptional
ktes
connections
opp@@
Croatia
eight
renovated
west
EADS
grundlegende
pieces
cent
wirksam
th-@@
sauna
falsch
natürlichen
Dem
radi@@
vorgenommen
tis
PL@@
dige
maschinen
remaining
reich
ktion@@
rup@@
Tru@@
stellten
OR
Hil@@
ences
kurzem
contributions
dens
Stand@@
chtung
Blo@@
Rob@@
Ware
Camp@@
Westen
hum@@
Drittländern
low-@@
Bestellung
Immobilien@@
depends
Kategorie
ills
erlauben
tickets
SMEs
yes
debates
lichkeiten
dia
igkeit
sexual
Che@@
Bucht
involve
Förder@@
volume
Lebens
fehlt
Gold
Canada
meist
definitely
regulatory
bekämpfen
messages
dates
Wirklichkeit
friend
communications
scht
zentralen
Unterschied
Technology
aufgefordert
Sand@@
weltweiten
Drittens
inzwischen
din@@
servi@@
freiheit
dorf
doors
Ges@@
Sho@@
entlang
Kam@@
Their
sätze
tenen
zurückzu@@
Poker
facilitate
Ratspräsidentschaft
Liber@@
acy
row
creates
künftigen
parliaments
Get
residence
liert
weather
Sach@@
Jedes
ausgezeichneten
SM@@
0.000
ries
anlage
kat@@
outdoor
erei
omm@@
B-@@
Bank@@
Boden
firstly
verursacht
Ausführungen
glad
submit
spring
Tourismus
realistic
Bil@@
öl@@
Box
sinnvoll
tierten
einfachen
weist
finished
ee
mas
ursprünglichen
Projekten
officials
M-@@
ran
identify
übernimmt
ace
Krankheiten
schicken
precise
Des
sle@@
contracts
Los
Park@@
pack@@
tho@@
Waffen
Zi@@
updated
ala
Java
Vorschlägen
kan
Over
U.S.
hervorheben
facts
vollständige
tiv@@
ziele
ausschuß
digung
atoren
fran@@
annehmen
bestand
Experten
ght
Gebrauch
east
Special
physi@@
rou@@
durchführen
Bru@@
Programmen
Buchung
Schlafzimmer
ads
kun@@
Übereinstimmung
defend
freundliche
Wird
confirm
geprüft
Kab@@
Maschinen
organizations
entertainment
entwickelten
etzen
lists
kenn@@
settings
Front
creative
chn@@
Kapital@@
Verhandlungs@@
ßt
behörde
cable
Applause
hit
sur
Geräte
entstanden
Ausführung
ticket
journey
ena
colour
1991
kal@@
ambi@@
hardware
nachhaltigen
Kamera
mt
kostet
Wil@@
Wol@@
zulassen
extrem
Kooperation
angemessene
aden
beg@@
Will
laut
dritte
occasion
regularly
rating
zuständigen
returned
erer
tra
beglückwünschen
customs
DS@@
GDP
decision-making
produziert
führende
ual
Halb@@
anstatt
Arbeitsplätzen
Partnern
täts@@
sin@@
verabschiedet
divided
ausgeschlossen
2013
conflicts
Lauf@@
visa
parents
ello
Lag@@
Britain
adi@@
grateful
Ausgangspunkt
characteristics
prakti@@
funktionieren
Luxembourg
cc@@
amerikanische
head@@
wirtschaftlicher
ände
Netz
answers
10-@@
ktiven
Vereinbarungen
effectiveness
9-@@
statistics
break@@
IA
displayed
driver
kam@@
serv@@
schlägt
notwendige
Element
Tar@@
sichere
fizierung
Verbraucher@@
issued
schafft
ander@@
deals
ong
gespeichert
Mitgliedschaft
PR@@
Sc@@
Action
Austausch
drink
wa
5.
höchsten
derartige
cro@@
stance
tierte
reserves
died
somewhat
klaren
Festlegung
Hü@@
fee
rt
Gleich@@
11.
Verbindungen
operational
emergency
markt@@
q
iler
organisiert
rein
license
speci@@
Steuern
blue
drivers
Tisch
enth@@
arch@@
Anbieter
compatible
Ab
Regierungskonferenz
Question
awareness
recommendation
stände
heating
eyes
pour
impression
gestellten
echten
Plenum
Sim@@
Hafen
maschine
Rumänien
musste
unden
kel
David
verstanden
roads
tene
edge
oni
impressive
marquis
abroad
Mac
Entwicklungsländer
two-@@
Sü@@
UN-@@
licherweise
verschiedener
Massen@@
module
zugunsten
.org
judicial
füllen
lus@@
parks
pfen
Lab@@
höher
satz@@
ham@@
will@@
plätze
grant
Rotary
Kommunikations@@
owners
ecken
Gestaltung
View
lied
Gleichgewicht
electricity
owner
surroundings
fäl@@
schönsten
Framework
worse
suites
termin@@
Bes@@
launch
Reform@@
abkommen
spo@@
vast
Bon@@
indicated
starts
eignet
Bemerkungen
Institution
fein@@
personnel
elling
system@@
gungs@@
Cyprus
collective
continent
frequently
verhindert
subsidies
leiten
transportation
Sauna
minority
feed
properties
ausgesprochen
AND
messen
KMU
main@@
alisation
imm@@
Nahen
Farbe
&apos;ve
Ausnahme
Beweis
speaker
Old
Boo@@
ter-@@
Stein@@
Deswegen
ony
On@@
Drogen@@
westlichen
zig
bestätigen
pollution
functioning
Spar@@
teren
faster
nahm
sla@@
lle
Werbung
Beiträge
Klasse
Verringerung
kol@@
Funds
Fac@@
Verbot
depending
mod@@
Basi@@
OS@@
Post
bezahlen
bedeut@@
aufnehmen
Nov@@
sole
Nachrichten
beschränkt
Hinter@@
Bulgaria
teams
Umgang
conducted
isation
ethnic
interessante
\
regul@@
Alter
lounge
fru@@
Under
2012
sodass
Werk
Fähigkeiten
Ele@@
appointed
tende
04
Assi@@
ele
signs
iso@@
zahl@@
configuration
enzen
satisfied
PH@@
Las
Garantie
ausgesetzt
stored
gearbeitet
committees
Fü@@
wann
Regime
München
desk
School
Waren@@
erleichtern
sern
topic
4.
rechtliche
Maß
steller
Straf@@
gehende
sor
wirkt
dence
hundreds
ann
focused
zunehmen
Konflikt
nights
es-@@
für@@
kurzen
carbon
uss@@
Zoll@@
vorlegen
organized
Eu@@
hall
Eltern
Zusatz@@
wachsen
plays
mus
weiten
aktiven
vieler
leben@@
Kr@@
stream
Geschäfte
ome
careful
Sou@@
atten@@
a.
weg@@
Ob
ett
uting
involves
gate
Amendments
Schwerpunkt
Besonders
passiert
noted
Kas@@
ando
welfare
Fla@@
bike
Prinzipien
1989
addi@@
Gegend
ume
Desk
buch@@
lift
ED
smus
Einbeziehung
proud
wär@@
Komponenten
vorher
windows
Zentral@@
Kin@@
understood
library
geltenden
denden
lautet
Organ@@
Charta
looked
prefer
trafficking
werten
blood
demanding
Euro-@@
bilateral
ix
ultimately
Zimmer@@
Real
Haftung
universal
Vision
anische
strict
wasser
bemühen
Jede
schu@@
familiar
ader
wollten
actively
bern
Einstellungen
sische
Kredit@@
kno@@
stag@@
Lim@@
reject
Japanese
sorgfältig
zäh@@
umgeben
seat
Planung
TO@@
entwurf
int
hinzufügen
declaration
breiten
occur
Komp@@
mul@@
tter@@
Copenhagen
Monetary
ez
ok
reported
contacts
Dorf
verleihen
techniques
verbringen
bridge
Marina
father
delighted
bild
Pla@@
tag@@
custom@@
V-@@
joined
p-@@
Yes
Kontakt@@
post-@@
conditioning
Portuguese
ash
Sy@@
träge
bom@@
mostly
früheren
spoken
boot
Ziffer
get@@
AP@@
Pass@@
grow
castle
imposed
Datenschutz@@
islands
hö@@
competent
dynam@@
Gerichte
Quali@@
installieren
massage
Optionen
gerichtet
Führungs@@
Gespräche
EX@@
Dol@@
Sit@@
aller@@
definiert
Angst
mol@@
classic
AV@@
remote
unmöglich
documentation
lü@@
frag@@
cket
arrive
Dat@@
desired
sicht@@
Minderheiten
copyright
Transport@@
Morgen
channels
dischen
formed
Tel@@
12.@@
vertrag
solange
Black
Veranstaltung
,00
vorschriften
Schluss
schau@@
Handeln
afternoon
Luft
Europol
begrüßt
famili@@
ferner
vertre@@
Log@@
phrase
dd@@
irs
bound
verringern
Trau@@
justified
nahmen
hostel
Pin@@
Perhaps
Sollten
Report
Vorschlags
printing
ately
ros
tea
decken
chemical
let@@
sä@@
C.
altung
ausgeführt
visited
dun@@
invite
soli@@
Texte
Faktoren
liefert
Gemein@@
dende
Künstler
flights
ama
Friday
ania
Wissenschaft
ación
präsentiert
Verfassungs@@
gestaltet
performed
Baltic
SV
Cat@@
deckt
Executive
Alles
direkten
Zwischen@@
Update
läßt
Politiken
Justiz
clubs
metal
interior
ministers
tackle
accompanied
Erd@@
schem
51
verändern
cosy
welchem
Kra@@
meant
ased
Trek
erreichbar
subsidiarity
Insbesondere
är
Protection
Vis@@
provider
fläche
einheitlichen
gebiete
linien
uss
schlecht
ize
motor
Wünsche
moral
follows
Straßen
Balkon
pass@@
Puerto
Selbstverständlich
terrorist
beraten
northern
S.@@
correctly
esch@@
corner
iting
einig
Tim@@
Wohl@@
klar@@
Asyl@@
Vorgehen
cross
demonstrate
52
deli@@
Mobilität
mus@@
soci@@
bestehende
abgestimmt
showing
Gerichtshof
maintaining
fördert
legi@@
ession
Second
86
Arbeitsmarkt
orial
viel@@
eastern
hair
Sorgen
respected
reiche
ima@@
jegliche
vorhandenen
Identi@@
Tatsächlich
mä@@
Internet-@@
nah@@
höheren
serving
ani
cell@@
tierung
organisationen
Sommer@@
assume
occasions
Adobe
Zielen
Verteidigung
Signal
Thirdly
betrieben
modern@@
PRO@@
entsteht
Gesellschaften
pm
Wein
demonstrated
Wind@@
teilt
wie@@
formal
Aktion
visiting
Noch
lern
ain
sucht
Versionen
Nein
hren
Ster@@
farm
vacation
Nos
Miss@@
kla@@
Webseiten
grundsätzlich
u.a.
gewährt
MySQL
cked
zentral
eth@@
Hilfs@@
ish@@
72
übrigens
2.0
tically
Mensch
kamen
NI
Sollte
bestimmen
concluded
raw
Budapest
äußern
Marktes
IC
sicher@@
sierte
Den@@
Newsletter
Außenpolitik
Rund@@
pers
druck
18.
Structural
Zwecke
gezwungen
Staat@@
minorities
investors
Robert
tourists
entrance
taxation
einrichtungen
erhebliche
isi@@
plenty
Veröffentlichung
spec@@
Wi-Fi
ky
mi
Stre@@
ú@@
Einwanderung
scheme
cast
Firmen@@
career
Act
Besorgnis
nungs@@
spartner
corruption
sight
categories
match
stars
relaxation
komme
pped
verdient
nehmer
prozesses
ron
überzeugen
collaboration
machte
ruhig
Beziehung
een
Kontrollen
inhabitants
bles
ordin@@
dependent
Bewer@@
Medien@@
presents
billi@@
Fuß@@
Bemerkung
frame
schauen
containing
transition
album
Kilometer
Eis@@
holen
or-@@
lebt
Due
ail@@
Jan@@
dich
OM@@
PP@@
Lö@@
updates
widely
overcome
Erzeugnisse
aria
d.h.
Rezeption
gallery
ließ
unverzüglich
Belgium
expert
Analy@@
Führ@@
Untersuchungen
ong@@
apart
institutionellen
facility
zusammenarbeiten
hän@@
bekämpfung
geboren
possibly
Freiheiten
oriented
high-quality
belie@@
verehrte
explore
transactions
R-@@
well@@
sensible
passenger
beschäftigen
handel
verkaufen
verurteilt
Oper@@
flü@@
conc@@
Port
Chancen
count
liked
Hohen
dans
rely
160
channel
LE
jahr@@
Description
Mexico
genügend
determination
gardens
arrived
newly
Ferien@@
ongoing
wines
e.@@
heits@@
credibility
regarded
Mö@@
ald
tlicher
eingereicht
sharing
replaced
Pakete
EM
Je
intellectual
aussprechen
Aut@@
gg@@
basi@@
Erholung
globalisation
verhalten
ungefähr
lokale
Northern
außerordentlich
fitness
argument
ersetzt
Individu@@
Messe
crimes
replace
tables
Plattform
theit
Washington
trau@@
News
staat
gent
studio
Flo@@
Fischer
firms
Preisen
declared
Verbreitung
entscheidende
PS@@
Les@@
liegenden
rapidly
scheinen
immigrants
avec
Brazil
behaviour
zieh@@
sprachen
tennis
corresponding
lauf
Edition
derung
maritime
Malta
s.
fei@@
Konsens
Sonne
sing@@
TS
Kurz@@
Polish
VAT
Umfeld
Rom
generated
begrenzt
Sektoren
ktor
tested
Produ@@
nunmehr
elten
Zentralbank
Prote@@
stylish
sending
stronger
effektiv
weite
with@@
bereitet
cutting
geräte
distributed
Film@@
gold
Software@@
zeugen
wiederholen
lasting
Fru@@
enjoyed
Mach@@
programms
Stück
usual
DA
Fun@@
organ@@
Sei@@
Earth
organisieren
legitimate
einzigartige
EG@@
Studenten
eres
dal
erst@@
Nation@@
hot@@
Radio
miles
contrast
direkte
bre
Ide@@
Poly@@
Übersetzung
proposes
gehenden
Ausgabe
SS@@
milk
standen
MB
educational
vorbereitet
Music
benen
functional
dürfte
kommen@@
va@@
percent
rental
fon@@
exciting
Balkans
gei@@
resistance
Anschluss
heritage
größer
WLAN
jo
perfekt
einfacher
Neue
vorstellen
woman
sicheren
tes@@
planet
adults
Rechtsgrundlage
duc@@
heat
Mad@@
settlement
Hungary
wohnen
Studien
ils
PO@@
informationen
stischen
nahezu
addresses
pel@@
individuelle
considering
lösung
bottom
puts
plenary
routes
letztlich
S.
verantwortungs@@
Zer@@
Given
reduzieren
Gewicht
Golf@@
flat
gän@@
acted
encouraging
president
igung
appearance
sierten
präsentieren
nissen
tos
å@@
ös@@
Gesam@@
Kyoto
Well
versorgung
Wohnung
them@@
slightly
welt@@
Frei@@
satisfaction
Tom@@
esses
King
gio
identified
sich@@
Krankheit
Nachricht
Hostel
Bereitstellung
kul@@
Mol@@
professionals
Mün@@
department
CE
ton@@
constitutional
identi@@
54
Eisenbahn@@
gewal@@
kürz@@
providers
respon@@
Tab@@
disk
aussch@@
vulnerable
Zusätzlich
Gründung
mix
atischen
erinnert
Sun@@
Pack@@
preparing
examine
substance
earth
Mich@@
anwesend
gebieten
proposing
Kapitel
hängen
Abschnitt
Hier@@
psych@@
bestimmter
Bars
ening
verstärken
Rest
het
gerät
Mari@@
Beschlüsse
proceed
ds@@
Erstellung
Wirk@@
directory
direc@@
Sicherung
erfolgreiche
steuer@@
Geheim@@
A3@@
Deutschen
Life
Fax
Or
mented
iten
Food
eingehalten
verkauft
ck-@@
Genehmigung
beteiligen
inclusion
Systemen
ute
virus
interpretation
herrscht
Facilities
Saint
Without
derer
Thursday
valley
voluntary
ita
ce-@@
sch-@@
chern
reform@@
towns
specified
Kräfte
Within
adopting
Pact
licht
solid
tobacco
Don@@
Mur@@
selbst@@
still@@
solches
individuellen
essen@@
partly
Ret@@
Zone
finanziert
destruction
mö@@
recorded
decisive
voran@@
rati@@
applying
foundation
courts
trägen
gere
films
ency
filter
swe@@
unds
Benutzer@@
ó
citizen
kg
fashion
Rus@@
comple@@
domain
Hungarian
top@@
drücken
gran@@
Vorsitz
elektronischen
Darum
aum
Dru@@
digt
bereitgestellt
abuse
aged
werken
angegeben
gestattet
suggestions
Guests
Kurs
überprüft
beruht
Training
15.
tol@@
Videos
Vir@@
occup@@
Datei@@
Blog
Kir@@
exception
1st
Hall
anbelangt
EB@@
sprach@@
gesellschaften
Oder
transpor@@
index
Identität
IV
Schulen
ständen
Atlantic
Sozi@@
cel@@
dance
entscheidender
Auge
Neben@@
tun@@
inklusive
sit
kompet@@
rock
component
Thomas
accurate
App@@
glob@@
spoke
wissenschaftliche
impose
inflation
britische
theme
Schlussfolgerungen
suffer
bs@@
Männern
housing
aufs
weekend
räger
tigt
ont
Ausstellung
Beschluss
ensures
großem
ado@@
suppliers
expansion
topics
Städten
tively
beantworten
Termin@@
fas@@
heutige
yed
complicated
owned
slo@@
einbezogen
saving
quali@@
nevertheless
IT-@@
Nah@@
reservations
wand@@
AK@@
Rahmen@@
flows
Lieferung
OF
vent@@
satisfactory
bert
jenen
Quar@@
Maastricht
deine
and-@@
Entlastung
li
geo@@
eten
mo
inde@@
teilung
division
Glas@@
Wir@@
burger
auer
lock
verbinden
voraus@@
Gran
Following
Entscheidungs@@
Überlegungen
mother
COM
eff@@
Space
BC
se-@@
CS
industri@@
gangs
Fle@@
Ty@@
.000
ero
ques
Ag@@
duties
Ton@@
ade@@
din
Kauf
kanischen
größeres
bislang
Schwei@@
Marketing
Katastrophe
shares
zun@@
slow
herr@@
Konsequenzen
Mitarbeitern
etes
ela
tives
drinks
irgend@@
mach@@
connect
geboten
battle
generate
TO
Agriculture
long-@@
input
Fel@@
surely
Arbeit@@
enabled
Client
Py@@
wechsel
invest
TI@@
tan
verkehrs@@
zustellen
ards
Stoffe
71
greatly
patent
Gewährleistung
wege
iner
lessons
straight
exit
George
disabled
Rap@@
elsewhere
Mangel
Ungarn
dul@@
Acc@@
Budgets
Prop@@
erzeugt
Freunden
beigetragen
raten
Exchange
difficulty
wonder
offiziellen
farming
strategischen
Legal
supplies
funktion@@
champ@@
electric
extra@@
portal
youth
add@@
fs@@
vermitteln
Ansichten
obje@@
festival
shipping
Mail
excessive
ishing
dru@@
zuständig
kts
BMW
wear
Assembly
Dienstleistungs@@
solely
Son@@
Person@@
kri@@
eds
dan
anne
erlebt
Parkplatz
Dauer
carrying
gefallen
toler@@
handle
absence
Congress
packaging
allocated
menschliche
integriert
Schiff@@
Gest@@
motor@@
cial
Wohlstand
Jun@@
spectacular
kleines
schung
zahl
Mission
moti@@
eld
sprech@@
gewissen
winning
Reduzierung
Fal@@
isch-@@
Flü@@
impor@@
disp@@
Wo
Verk@@
53
nieder@@
consent
erfolgreichen
schwer@@
Vorstellung
arguments
ond
cuts
Cha@@
hear@@
Wählen
versichern
Dafür
bet
videos
investieren
gewi@@
Revolution
Mobile
Extre@@
finish
Herz@@
Ram@@
mittleren
cooperate
heben
ny
vieles
effizient
amb@@
tief@@
92
forests
fuer
fahrer
entwickelte
luxurious
kontaktieren
Network
AN
Ed@@
ulate
stung
equi@@
Sony
L-@@
root
Whether
treat
Bedrohung
Fein@@
paying
wirk@@
Autom@@
sprach
führten
leistungen
permitted
tei@@
mem@@
Browser
hen@@
Schiffe
§
mächti@@
leistung
Band
entes
Suiten
Zivilgesellschaft
comparison
pursue
Werke
nit@@
filled
Strasbourg
labelling
bereichen
Besides
Garden
Israeli
selben
verkehrs
description
anzuzeigen
·
auftreten
Kollegin
Vorhaben
harmonisation
Canon
ere@@
behoben
ouse
6.
constitution
poly@@
wed
Like
periods
Polizei
Lebensmittel
zeichnen
AD
weitgehend
Interessen@@
verteilt
spann@@
eventually
häuser
66
sie@@
Zy@@
losses
extraordinary
Schlüssel
Gefahren
Bir@@
secret
por
wiederholt
mentar@@
Touristen
Kroatien
Glaubwürdigkeit
freut
drug
letztendlich
jün@@
FT@@
receiving
ico
beobachten
Boden@@
56
wat@@
Gegenstand
Einwohner
68
layer
gewonnen
virtual
itali@@
sus
ère
enhance
König@@
Verb@@
magnificent
Str@@
Based
HT@@
druck@@
directed
internen
sheet
alization
subjects
Town
CON@@
Lounge
Gerät
Finanzierungs@@
gemeinschaftlichen
Holiday
französische
welcoming
Church
import
sozialer
Sunday
Praktiken
ham
fli@@
Roh@@
confirmation
Having
XP
Positionen
dor
leb@@
individuell
Grad
proven
mali@@
kette
selling
fans
verbundenen
laufenden
cab@@
Boot@@
betreiben
everyday
manufacturer
Frühstücksbuffet
Mail@@
akt
Kontakte
Tools
hierbei
herunterladen
Energien
Schw@@
Einheit
obliged
frie@@
Auditors
vorzulegen
künftige
Zwei
Kop@@
arbeits@@
Mem@@
James
ähnliche
Blan@@
modell
imports
russischen
wohl@@
fulfil
verfügbaren
sü@@
Strom@@
Politik@@
Champ@@
beschrieben
departure
ober@@
Übergangs@@
angebot
Wo@@
Trotzdem
probleme
Monday
ziel@@
gained
wan@@
Belgien
fertig
drei@@
Gerade
verst@@
succ@@
Betrag
els@@
Sein
Redner
assets
trial
Tour@@
sauber
Vel@@
lik@@
Wur@@
sitz
Werbe@@
Programm@@
buch
quarter
but@@
Tool
Kontext
en-
stolz
necessarily
sugar
abstimmen
liberal
Budget
Hot@@
chtet
university
schla@@
dauert
suggested
Modelle
BIP
Cer@@
illegalen
itäts@@
Schwer@@
pt
concepts
traditionelle
Weiteren
sicherung
Tau@@
Fahrzeuge
aner
mussten
Spaß
revision
raising
Übernachtung
Brun@@
gedacht
vorgesehenen
hundred
ausgerichtet
exports
ney
uted
Plus
40@@
viol@@
programming
Fon@@
savings
representation
sil@@
promised
entschlossen
traditions
Beitritts@@
gründen
hervor
feu@@
akti@@
makers
7.
ned
lers
17.
Ausflüge
Rich@@
argu@@
cont@@
Power
bekannte
Sig@@
aktiviert
referendum
lte
lobby
wave
supervision
cash
Bö@@
unterstreichen
label
ordinary
Selbst
lined
cian
fang
Situationen
entspannen
asses
constitute
countryside
Prüf@@
depend
Alp@@
kräfte
fly
ähnlich
bergen
Playa
gste
welcomed
colours
vin@@
bedeutende
HTML
ologi@@
Tan@@
supplier
Show
reduziert
cleaning
Viertel
gelingt
artist
Flüchtlinge
einf@@
utz@@
mangel@@
therapy
isen
betreffend
vorgeschlagene
smo@@
speichern
Brasilien
overview
eit
negotiating
absor@@
schie@@
Provinz
mes@@
mitteilen
instructions
Taiwan
tered
wunderschönen
emerging
zukünftigen
Konto
Mut
orts
Betten
wirtschafts@@
Körper@@
11.@@
wirtschaftlich
Arab
rap@@
Does
Live
missing
Image
forthcoming
einzusetzen
optimale
united
errors
richtet
Einkommen
pil@@
grös@@
amenities
Hy@@
unity
stocks
langsam
Glück
Prozesses
mann@@
Verletzung
GN@@
angebracht
Obama
trips
Salzburg
59
mechan@@
Prozesse
Sind
verteidigen
vorher@@
Finland
Ganz
attempts
jener
mischen
asser@@
Friendly
Bulgarien
legally
clean@@
Fehler@@
Personal@@
Elektro@@
Heizung
58
beendet
vorschlag
unterliegen
Wes@@
Erfüllung
Telefon@@
cted
schlag
Aufsichts@@
Kommissions@@
wirksame
thousand
altet
army
projekte
Dre@@
Gast
villa
verbindet
konfrontiert
schrift
kontrolle
banking
Eigentum
wireless
liefer@@
trag
Freizügigkeit
Zuständigkeit
Prague
arti@@
unterzeichnet
kung
Num@@
bekommt
gebildet
stages
insi@@
preventing
ersetzen
ites
Meines
Federation
NGOs
Nummer
20-@@
zeichn@@
dt
Pet@@
recht@@
Schiff
arise
klein
ativ@@
non-smoking
ride
succeed
proceedings
este
AC
punkte
realise
Gran@@
täglichen
barriers
prosperity
gliche
egal
inten@@
sections
Donnerstag
wrote
deswegen
bestellen
angesehen
institutionelle
leaves
dam@@
gebeten
trend
Should
illi@@
freedoms
ausgegeben
stil@@
SA
stry
Award
unterscheiden
wettbewerbs@@
restricted
Parlaments@@
foot@@
©
destroyed
ursprünglich
offene
gh
angepasst
grenzen
Organe
spreche
fairly
doesn
langfristige
pools
ums@@
non
appeared
steuern
scene
Landes@@
Cra@@
firmly
wach@@
Islands
Fas@@
ential
diplom@@
Vorlage
effe@@
sichts@@
welcomes
ac
invited
stab@@
Sterne
Tem@@
100@@
Korruption
enabling
interessant
awarded
Cur@@
Anlass
Asien
dur@@
niveau
verein@@
annte
cot@@
fax
deficit
allzu
significance
Bahn@@
sparen
Debian-@@
functionality
wechsel@@
dienst@@
continuous
hör@@
Krisen@@
gerufen
ring@@
Tätigkeiten
Grünen
Sat@@
16.
introducing
modules
wert@@
Digital
Marke
erhielt
Set
H-0@@
ented
asing
delicious
Situated
eat
passen
Kulturen
jährige
tionally
notes
fassung
Freitag
ests
politically
Befugnisse
inos
vierung
villages
Verarbeitung
pression
diert
Schwar@@
setz@@
Rö@@
suffered
ended
genannte
pot
Ant@@
Soviet
Vorsch@@
schm@@
Skype
heim@@
ial
Captain
indicate
blocks
ahn@@
erzeu@@
dankbar
parameters
hier@@
Binnenmarktes
obstacles
cos
Menü
Haushaltsplan
Nachbar@@
ungsverfahren
konzentriert
conf@@
Gerechtigkeit
religion
coordinated
ville
beings
safeguard
killed
than@@
Verlust
Sum@@
gelassen
klein@@
alities
unabhängigen
rising
anner
ator@@
Through
Stimm@@
kehr@@
Women
a.m.
Wirtschaf@@
-based
inmitten
Kap@@
gewähren
effiziente
Law
Posi@@
symbol
patient
Abschaffung
Gehminuten
ACP
Gericht
chinesischen
8.
manche
enthaltenen
Staates
Aktionsplan
Main
homes
bonus
Inform@@
einzigartigen
dent
adverti@@
vollständigen
non@@
ski@@
upper
revi@@
anschließen
sau@@
Widerspruch
Denk@@
gendes
verdienen
Refer@@
sk
J
breit@@
Bou@@
bisherigen
Who
schwei@@
estimated
Wachstums@@
aqu@@
Genießen
stör@@
vessels
remarks
günsti@@
Stockholm
vorliegende
penalty
Notes
ading
ols
umfangreiche
exploitation
Anti-@@
Charles
Cir@@
ag
fähigen
jetzigen
publication
Valley
Risiko@@
schli@@
fees
einheitliche
sively
PD@@
schnell@@
langfristig
Geschmack
hardly
saved
Hom@@
Airbus
istic
mitglieder
shot
moder@@
praktische
museums
wahlen
societies
Pläne
gesetz@@
centuries
A.
dness
weak
behaupten
stä@@
Last@@
fü@@
initi@@
gnis
tigung
zentren
richtung
Kirk
UM@@
wis@@
Kopf
Salz@@
unforgettable
ame@@
G-@@
bares
sex
ite@@
Vater
Vista
ologischen
steigt
checks
Mallorca
entsp@@
deposit
contributed
leu@@
adapt
Bade@@
politi@@
specialist
servers
ergibt
ano@@
Vier@@
Dun@@
griffen
sounds
Anwendungs@@
Quality
oning
refer@@
rare
korrekt
ora
computers
könnt
antworten
fourth
trieben
formation
grosse
budgets
considerably
protocol
AR
Tele@@
covering
supposed
zuzu@@
AM
chem@@
verboten
inf@@
Single
Transpor@@
anschließend
organic
Wald@@
disasters
lunch
zukünftige
unabhängige
57
SL@@
haf@@
läu@@
hervorgehoben
philosophy
Games
humanitäre
ées
kern
characters
steh@@
adapted
UT@@
empfangen
tree
Eli@@
füll@@
sah
erwähnen
erfreut
par
BSE
auto@@
vil@@
vereinbart
actors
Staff
et-@@
su
hearing
gewünschten
Mei@@
struktur
Zeitung
Kreditkarte
bestimmungen
lieber
kernel
transmission
quar@@
gram@@
reaching
hochwertige
reli@@
endorse
sach@@
sustainability
classes
Offen@@
collected
besonderer
mot@@
erstmals
gewis@@
supplied
exclusion
none
ernsthaft
Regel@@
tari@@
verwaltung
approve
Kanada
HO@@
legte
Zahlungen
Computer@@
methoden
euros
Märkten
hingegen
militärischen
prec@@
resource
undoubtedly
pure
lev@@
hospitality
Professor
gering
körper@@
severe
gap
visu@@
Abendessen
script
rum
ior
illu@@
Beteiligten
fügen
gelegenen
Schla@@
Bul@@
Rio
heim
10.
Berichten
Mutter@@
Andere
ori
Feld
aut
vation
Sachen
überein
Pon@@
metro
Kriegs@@
Dep@@
explained
Kriminalität
CAP
Reservierung
Would
productivity
Steuerung
Len@@
productive
ehen
Pul@@
everybody
Wirtschaftswachstum
itä@@
AF@@
Respekt
Willkommen
theory
excluded
gemeinschaft
New@@
mouth
sichtbar
speciali@@
Blu@@
coun@@
bach
renowned
Standort
Akti@@
Perspektive
Lizenz
Mir
designs
militärische
Gemeinsame
alized
Vertrages
nutz@@
festzulegen
yo@@
inst@@
Zug
Christ@@
Gold@@
super
Anstieg
komple@@
Gerichts@@
äh@@
Dritten
nachdrücklich
oper@@
Bü@@
drop
bereiten
hydro@@
courage
enhanced
Venice
Eink@@
Cookies
Parkplätze
skiing
relative
Location
Veränderung
nde
greift
ktiv@@
sphere
Ebenen
halb
hr
Drei@@
kes@@
Runde
concentrate
cells
unterschiedlich
förder@@
acceptance
67
refers
Bis@@
Geschäft@@
eingegangen
Australia
regu@@
Regierungschefs
Ablehnung
uter
Hat
freundlichen
tin@@
eckt
Stimmen
kontrollieren
Ankunft
Volksgesundheit
Nahrungsmittel@@
Socialist
externen
archi@@
Handels
Education
imagine
Guide
Ep@@
A5-0@@
gere@@
Cri@@
Point
Saturday
umfassend
floors
Amt
Rein@@
Weg@@
Gang
Ga@@
iness
fanden
ktoren
ais
Regional
combine
nütz@@
Passwort
EE@@
bedanken
festgelegten
clause
ref@@
portfolio
modi@@
Konferenz@@
Sec@@
Check
richtlinie
gerung
VER@@
flächen
Year
Thailand
steten
anhand
geplant
Terror@@
selten
travelling
ni
male
originally
Ferienwohnung
Schlaf@@
camp@@
esse
züge
grenz@@
recognized
remained
ema
Geneva
Tei@@
Mes@@
Leg@@
Quellen
hart
h-@@
Gleichstellung
AIDS
cancer
pp
fähi@@
Theater
Institu@@
hohem
Islam
Ursachen
fir@@
geeignete
tual
stands@@
cer
untersucht
well-known
violations
93
pä@@
armed
Reisen
Gam@@
umsetzen
turning
unfair
normalen
worthy
alisierten
roll@@
strukturi@@
Sin@@
88
Commissioners
Wür@@
Haben
Frist
trends
Putin
arm@@
Büro
eil
seri@@
processed
Next
Trop@@
dignity
geraten
Kla@@
überaus
Sau@@
Erst
tern@@
Partner@@
undertaken
einzuführen
individu@@
artistic
rechnen
natürliche
hill
Family
nicht@@
Tausende
thin
Verteilung
hoffentlich
diskrimin@@
Stability
gli@@
analyse
Kranken@@
dering
lived
cross-@@
Est@@
beschränken
sammeln
nützlich
dere
fährt
fishermen
reaction
besorgt
Geschwindigkeit
U-@@
verti@@
briefly
dargestellt
angewendet
assess
ätze
nec@@
sichergestellt
suit
spa@@
fix
Tourism
Agenturen
showed
chair
voc@@
ura
ssen@@
normalerweise
boards
Apple
erfordern
universities
yers
ario
schnellen
Arbeitsplatz
ete
ordered
Emissionen
transferred
hervorragenden
accident
è
Mr.
nummer
Mont@@
änden
gesp@@
inger
fast@@
dream
ans@@
dry
sierungs@@
letters
leichter
thermal
pretty
typ@@
stück
Stad@@
Gaza
Information@@
existiert
entdeckt
dialog
Play@@
gut@@
Waffen@@
aming
komfortable
aside
merk@@
justi@@
strategische
Place
Serbia
ull
printed
hl@@
Ausmaß
geschichte
Cup
alt@@
investigation
consulting
komplette
generations
zurückzuführen
Abhängigkeit
BO@@
inner
Publi@@
sement
Besitz@@
gue
gefragt
Pau@@
melden
ford
reserved
Sitz@@
kop@@
Pun@@
believes
reflected
dau@@
Konflikte
konferenz
bis@@
Schon
CHF
cement
parliament
dark
Volkes
Wechsel@@
Consequently
tert
Geschäft
Vereinfachung
Grün@@
Forsch@@
Jung@@
Küsten@@
anim@@
regardless
ausgezeichnet
Hab@@
politisches
cour@@
Andererseits
Berich@@
reliability
lösungen
Gemeinde
atik
faith
auff@@
täten
enterprise
Somit
strengthened
Master
ichte
geäußert
Rechtsstaatlichkeit
erneu@@
whereas
automati@@
9.
GU@@
vornehmen
aux
DO@@
Nachbarn
hierfür
oria
stellungs@@
lierten
wahren
prof@@
Balkan
viert
altern@@
zeug
4,@@
öffentlich
step@@
12.
63
missions
Schwe@@
didn
ee@@
Parameter
vieren
joining
Lizenz@@
Gelder
schweren
dated
Hö@@
13.
Fan@@
Dritte
essi@@
targeted
fleet
ten-@@
Instruments
ease
beru@@
ange
Würde
wild
football
erkannt
movie
diversi@@
Schu@@
keinem
Deutsch
thy
aufgebaut
Consumer
award
urgently
Dies@@
olog@@
Sol
appe@@
adap@@
Pati@@
ph
Lok@@
cen@@
bathrooms
heißen
restore
Meeting
ells
Cent@@
regel@@
switch
movements
geprägt
produzieren
umzu@@
ail
cle
Ombudsman
Castle
Schweizer
abo@@
subsequent
anywhere
normally
Islamic
Tor
tain@@
amazing
amed
wür@@
freely
op
gemä@@
enge
Plas@@
ony@@
counter
verweisen
ap
formats
Get@@
alty
berichten
synchron@@
ium
lischen
elte
Eurozone
Lastly
female
ration@@
Parlamente
Investitions@@
Beide
waffen
Allianz
Umweltschutz
bol@@
Project
Blut@@
driven
dings
nungen
sogenannten
grad
Währungsunion
Planeten
irischen
sufficiently
bezahlt
Leitung
tail@@
bly
wellness
Registrierung
efficiently
ologische
gin@@
EP
gestaltung
dev@@
belief
Darstellung
restructuring
appropriations
Umwel@@
equivalent
80@@
zugrunde
Cle@@
tory
mine
bende
Musi@@
Rechten
nd
sought
Diam@@
eingestellt
graphic
Handlungs@@
Dokumenten
Mini@@
grade
qualitativ
Öffnung
Gir@@
Faktor
Marken
ped
brachte
ending
oned
restored
rechtzeitig
teen
jun@@
doub@@
ling@@
prop@@
Wochenende
märkte
schä@@
ished
Bestimmung
def@@
Belgian
codes
attached
EU-Mitgliedstaaten
compact
akzep@@
Zahlung
gesetzlichen
irre@@
conventional
reconstruction
vorbei
fähige
technisch
Rem@@
Wirtschaftskrise
küh@@
Staatsan@@
Entspannung
relates
froh
erweitern
Eingang
meal
passt
reifen
satisfy
um-@@
plastic
assembly
letz@@
82
gestärkt
kontrol@@
MA
Americans
Verlauf
angemessenen
internationally
inner@@
Don
behält
neighbouring
niedri@@
einfach@@
iPhone
verfol@@
Teams
atz
Pack
shed
secre@@
intends
empfohlen
ès
tracks
ital
Quelle
dict@@
birth
kas
Top@@
stan
Hä@@
festen
Pil@@
hung
stuff
entgegen
collect
della
Internationale
pillar
Lang@@
Bearbeitung
leitung
arbeitete
hast
Ali@@
Rückkehr
Todesstrafe
lieb@@
produces
vierten
viertel
shadow
Vorausschau
Ol@@
federal
zukommen
94
Spitzen@@
kontrolliert
mess@@
till
früh@@
Bin@@
chti@@
stattfindet
greif@@
ebene
Tests
Papier
deep@@
entering
ökonomischen
gehör@@
stärkere
elli@@
ECB
Piazza
Bibliothek
Tages
Ari@@
Seri@@
overlooking
wol@@
kus@@
hi
ind
materi@@
Minute
selber
Dreh@@
usage
statisti@@
guided
spiele
genaue
cultures
Web-@@
Hong
Road
Kong
kra@@
proportion
Denmark
aktu@@
pit@@
62
gements
schule
seu@@
Georgia
letzter
individually
Spielen
Bot@@
managing
bo
Prozess@@
everywhere
199@@
upgrade
ed-@@
Beseitigung
Protocol
Großteil
ux
spra@@
geleitet
TE
Up
sovereignty
gation
Will@@
sights
Speisen
refle@@
Stuttgart
graph@@
tier
Tibet
Key@@
gaben
grossen
hil@@
wachsenden
underground
Finanzkrise
Be
senken
disc@@
LA
learned
vorschlagen
beziehungen
Hauptbahnhof
adds
Institut
zahlung
Homepage
ey@@
amt
treatments
auffordern
Christmas
iled
acknowledge
anzeigen
chter@@
hü@@
Mü@@
Nero
gelesen
operates
Innenstadt
dating
Straßburg
Generationen
sees
zerstört
Haut
übersch@@
ote
Erinnerung
Orte
Kontinent
ecological
vali@@
uniform
profits
taxi
inated
Jugend@@
song
Anwender
bright
arising
Customer
a.@@
Maschine
lob@@
belong
deut@@
Erhaltung
ländliche
tot@@
tief
digitalen
fut@@
zog
voraus
sichti@@
engines
intelligent
manufacture
0s
án
Tür@@
zent@@
bla@@
überwinden
posed
lic
Kü@@
diesbezüglich
Länge
Mechanismen
Überblick
gewer@@
coherent
Optim@@
abilities
absol@@
Up@@
max
gegenwärtige
dlicher
St
Lern@@
Dialogs
meter
alisieren
derzeitige
eth
mistake
Unterkategorien
Hohe
iniert
enorme
deeply
ami
Ker@@
meaningfully
cast@@
Personen@@
Alt@@
Debatten
griechischen
blei@@
Les
--@@
89
91
bewältigen
enthalt
Mrd.
roman@@
Opposition
gehei@@
Stock
dische
gkeiten
Aufzug
panel
romantic
Obje@@
Resolution
Email
annten
Berliner
brau@@
Montag
songs
Spezial@@
alem
bat@@
logical
69
reise
steam
worst
us-@@
Armee
Bereitschaft
unded
liter@@
binden
sand
Sudan
priv@@
lädt
räumen
effektive
acti@@
Miet@@
Dingen
verfahrens
operated
Berichterstatters
shuttle
Il@@
Have
consu@@
Niederlanden
liable
Schrift@@
commun@@
convenience
linken
seconds
Egypt
warning
Asian
of-@@
Kopenhagen
Es@@
konkret
reflects
sub-categories
integrierten
ino@@
Florenz
prime
Branche
CDs
rechtlich
lor@@
profession@@
damages
strasse
Fahrt
illustr@@
tech
dead
nat@@
Versorgung
Schloss
Bord
spite
Strand@@
untersuchen
geographical
cool
Sicherheitspolitik
gement
highlighted
Sammlung
Blue
77
CD-@@
betra@@
Bern@@
Cab@@
OK
Sierra
checked
grammatically
Corporate
teste
play@@
Suites
execution
CN@@
Verein@@
Explorer
14.
alcohol
krise
trav@@
contextually
strictly
lien
trat
Sohn
superior
Schlusselwortern
Eri@@
stayed
affects
Symp@@
stieg
Benutzung
fangen
grammatisch
Motor
König
Kompetenz
luss@@
negativen
Equ@@
perfekte
denjenigen
Hindernisse
Ah@@
selb@@
cious
alisiert
kontextuell
xen
gnissen
garage
dio@@
Schön@@
begleitet
Schlusselwort
Schlusselphrase
NO@@
airports
Luxemburg
Mechanismus
Fir@@
wes@@
reck@@
Hinweise
Polizei@@
Schönheit
edited
manual
Kategorien
clarify
peri@@
doku@@
ergänzt
Fernsehen
Casa
executive
engaged
holds
EV@@
klimati@@
langer
red@@
älteren
SC@@
renoviert
garten
remin@@
11@@
beenden
61
besu@@
EA
spi@@
wage
sleep
fers
threats
Text@@
integrate
verkehr@@
territorial
kraft@@
c-@@
Kaffee
mini@@
Senkung
heading
Events
eingesch@@
marine
panoramic
Common
Cy@@
presenting
nine
ras
konstru@@
roots
restri@@
varied
SD@@
Gay
mittlerweile
ys@@
causing
alter@@
groß@@
räu@@
isti@@
beinhalten
Jugend
12.00
such@@
pec@@
Jahrzehnten
poses
erzeugen
genes
ms@@
wald
ci
Zusammenhalt
Indian
edition
province
sy
Maschinen@@
Bedien@@
gültig
teils
gres@@
eta
phones
Bed
Culture
bett
antes
zü@@
rolle
aw@@
loser
geregelt
festzustellen
favourable
prozesse
compulsory
Kohäsionspolitik
klassischen
Der@@
Museen
utmost
angewandt
aring
Mandat
hes
HU
europäisches
Detail
UL@@
mere
aling
&apos;m
hierzu
überlassen
Invest@@
B5-0@@
ativer
IK@@
Sobald
highlights
kro@@
uli@@
gleichermaßen
Oberfläche
Opera
referring
tum
antly
ütz@@
gal@@
Tabak@@
Beachtung
900
graphics
Öl
faces
Micro@@
Tür
Ori@@
twice
eventuell
BR@@
sichtlich
praktischen
Helsinki
Europ@@
Among
promise
Tonnen
Bol@@
Area
Berg
angenehm
Augenblick
Koh@@
accidents
stoßen
kir@@
considers
Chan@@
sin
wonach
gehandelt
Content
phenomenon
pressing
Mutter
Mah@@
Vari@@
wesentlicher
incorporated
treiben
Jugendlichen
honour
fällig
stores
Käufer
ehrt
Recht@@
Autos
Ergebnissen
izi@@
Bedürfnissen
musical
unmittelbarer
Danish
Komm@@
quotas
besucht
Car
occurred
enswert
Tel
leich@@
medicine
bility
steigern
Using
Schreiben
choices
äm@@
Licht@@
illegale
cell
ansprechen
soil
festlegen
Gor@@
stant
Wesentlichen
aktuell
Kern
angenehmen
dieren
offizielle
Vertretern
free@@
teaching
factory
pick
heads
73
insist
tischer
harmful
Exper@@
Übertragung
Industry
anzubieten
Patent@@
essentially
explanation
Stärke
ô@@
lenken
ausgaben
hiking
EW@@
Strecke
Residence
zwingen
vely
zige
Anmeldung
wendet
gor@@
consequence
pflich@@
bewahren
umin@@
encouraged
aviation
adding
mouse
sand@@
Wirksamkeit
Subject
aster
eigener
schnit@@
dauer
SCH@@
â@@
Versammlung
öff@@
Cooperation
meets
spezialisiert
meals
convention
prospects
candidates
Milch@@
gehörigen
ähr@@
regulated
verletzt
regelung
Cou@@
grund@@
Finnland
berechnet
Ama@@
Projekts
türkischen
sible
herrlichen
Cel@@
vic@@
kümmern
wartet
gradually
trac@@
UC@@
native
Bl@@
student
Regulierung
stammt
CD@@
push
SE
soeben
Dam@@
Saf@@
Typ@@
entscheidenden
reporting
Tauch@@
oms
Treaties
Wohnzimmer
decline
Haar@@
humanitären
Professional
vis
Sul@@
ison
Vice-President
Börse
Vietnam
ão
geschickt
premi@@
program@@
stories
grown
tent@@
Herbst
Fr@@
Module
scientists
Bag@@
76
freund@@
combines
io
convergence
three-@@
ilit@@
Datum
ska
Potenzial
agents
finanzieren
wechseln
akte
befasst
Höchst@@
Autobahn
booked
exact
ø@@
succeeded
stammen
Hamas
geber
Administration
eria
Verwirklichung
stunning
-up
Satelli@@
Port@@
shift
surprised
Ke@@
sitzen
gekennzeichnet
urlaub
shel@@
rö@@
Besuchen
repair
Ja@@
Lü@@
Anonymous
gefähr@@
stration
pur@@
Fundamental
Ale@@
feet
Appartements
anwen@@
thumbnail
begins
Tou@@
Nachhaltigkeit
iges
Investoren
sty@@
FA@@
Führer
infolge
bru@@
Verbraucherschutz
stick
gefährdet
engage
prin@@
spät
30.
Ausbildungs@@
folge
Ersatz@@
Direkt@@
Panoram@@
ases
permission
Umweltfragen
Kandidaten
schö@@
pap@@
Vie@@
wirkliche
tnissen
Unterkünfte
Energieeffizienz
Zürich
abend
funktion
V.
colors
Betriebe
acquired
observed
Renn@@
bedeutenden
illa
tionary
Außen-
produkten
Schn@@
rupt
Innovationen
reputation
gesam@@
gross
seats
gelangt
mögen
keys
Archi@@
außen
Apart
visual
Dass
anzunehmen
klassi@@
Ausarbeitung
günstige
riding
Nor
Presse
oring
PA
resulted
lichsten
variable
operator
sson
lehr@@
Nichtraucherzimmer
Verzeichnis
HD@@
lier
UNO
gewählten
Gibt
Eur@@
specialists
habit@@
collec@@
aire
prosec@@
Golden
Reser@@
See@@
attend
zia
Ven@@
passing
zeichnungen
prisoners
Messe@@
Vermittlungs@@
dateien
fiziert
by-@@
Lon@@
vergleich@@
Top
airlines
Lux@@
schwierige
fing
contrac@@
frem@@
Jedoch
ill
purely
Auftrags@@
Lesen
forth
Mark
sauber@@
Fehl@@
records
Wandel
ausgewählt
bringung
College
Dokumentation
amended
aut@@
programmen
Tsch@@
fro@@
fügt
Saison
ean
jedenfalls
any@@
bungen
Further
ht
broken
Gemeinschaften
Euch
Small
itable
Flughäfen
design@@
frequ@@
Eng@@
absch@@
ergänzen
participating
construc@@
müssten
prote@@
thi@@
Prozeß
aches
mäßige
bte
jour@@
Pflanzen
Herz
bemerk@@
vorgelegten
Freund
Leit@@
4-star
Warcraft
krimin@@
engli@@
pace
diplomatic
cas
Urteil
Wirtschaftspolitik
SQL
sn@@
Baby@@
wu@@
Lor@@
hypo@@
vorliegen
gam@@
Rech@@
specialized
Audi@@
müsste
widespread
nehme
Arbeitnehmern
casino
Berge
vention
virtually
kilometres
eingebracht
bot
boats
Staats-
dispute
Vertrag@@
EZB
surprise
beu@@
geliefert
cin@@
tiz@@
Team@@
Mod@@
crew
Weil
feh@@
hole
developers
Free@@
prozeß
forschung
taining
ose
ve-@@
Renten@@
porting
string
vorzunehmen
inn
Saddam
ziger
bewerten
catch
lian
geführte
Gewal@@
losigkeit
Academy
lieben
Argumente
jk
schein@@
Zypern
recording
lis
festi@@
rot@@
pot@@
prison
ily
Form@@
gänge
Netzwerk@@
glo@@
betrieb
erstaun@@
Afri@@
Zw@@
Maß@@
preserve
Span@@
ever@@
Direc@@
TA
picturesque
stran@@
sessions
sterben
Verkehr@@
Tieren
Wellness
Access
Sonn@@
Plug@@
Entfernung
layout
boost
narrow
organise
Dach@@
60@@
Speicher@@
Authority
beeinflussen
Kampagne
seeks
Ok@@
medicines
struggle
urgency
Betreuung
achievement
eo
Dro@@
78
errichtet
cla@@
Hän@@
Bereits
typischen
eless
yard
dest
enforcement
Annehmlichkeiten
Todes@@
Lat@@
transfers
Ansprüche
entfernen
Andre@@
frühen
miss
sophisticated
2nd
lierte
prü@@
past@@
distur@@
sischer
Wen@@
ologisch
schemes
conferences
incentives
projec@@
Appartement
hidden
Cho@@
Director
knapp
permit
innov@@
tigkeiten
kurs
BS@@
shortly
anwenden
Stock@@
Alexander
tile
closure
loading
betrieb@@
array
langfristigen
zweifel@@
sektors
Abfall@@
stätigkeit
implications
ungser@@
Übrigen
wahr
i-@@
Investment
rank
derte
stechnik
conciliation
statten
Mart@@
ray
Imp@@
encies
350
ansehen
Tal
dation
Fläche
gegebenenfalls
constitu@@
negotiation
Got@@
Wiederaufbau
Phili@@
human@@
ratification
oftmals
camp
roof
Porto
GR@@
Az@@
ici@@
anz@@
maxim@@
retain
schwere
ausüben
Mass@@
Weiterentwicklung
Gewinn@@
teachers
sexu@@
Bom@@
iel
netz
bun@@
navigation
Portal
bü@@
mers
AP
verse
bewußt
Civil
sab@@
endet
Internetzugang
manu@@
troops
Holz
beantwortet
verringert
hopes
bou@@
grünen
Pension
abri@@
vable
Unions@@
verwal@@
vorgestellt
aj@@
wonder@@
revenue
producer
Hard@@
Religion
Doppelzimmer
geschlossenen
Regional@@
CR@@
Fire@@
Kapital
Modernisierung
Räume
Ve@@
Rent@@
überwachen
constructed
Terms
Chem@@
director
bearing
polis
blin@@
scheduled
tö@@
Urlaubs@@
dumping
verstehe
professionelle
Differ@@
cr@@
CL@@
19th
verwendeten
minor
diff@@
seiten
eliminate
compar@@
proc@@
Häuser
Storage
rad
know-how
Errichtung
associations
Jac@@
Mittelmeer@@
Glauben
Drittel
percentage
beseitigen
Sektors
decade
74
Mängel
500@@
eingeleitet
Parti@@
geblieben
liger
ousness
Nikon
Är@@
5,@@
sidenten
Präsenz
objec@@
ändert
woo@@
bild@@
Modul
digungen
wander@@
strukturen
Gesetzes@@
ington
opens
flug@@
erteilt
Entwickler
cip@@
sequ@@
num@@
governing
ärer
Sonntag
Grundlagen
Journalisten
Rand@@
Studi@@
bay
folder
armen
communicate
iling
Gau@@
Kooperations@@
magazine
landwirtschaftlichen
var@@
ght@@
newsletter
Sup@@
Erst@@
lten
neighbours
Werden
Sound@@
staying
denkt
assigned
ats@@
hinweg
Vorstellungen
Danach
Fron@@
Rh@@
recognize
Strände
suff@@
klasse
Intergovernmental
lim@@
wort
kungen
Symbol
Anim@@
promises
hervorragend
calm
Oliven@@
MP3
plug@@
öl
netz@@
conver@@
beln
atom@@
Ashton
Chile
musi@@
unnecessary
Erzeu@@
scho@@
Basel
trou@@
Eth@@
Vereinigte
stem
alitäten
rad@@
homo@@
Allah
pilot
gebühr@@
ples
versammlung
weak@@
Angel@@
Software-@@
repeated
Foto@@
Joint
evident
sorry
emen
sied@@
inadequate
Wohnungen
multilateral
Konvent
Fluss
kter
gerechte
fehlen
Peti@@
kostenlose
aufbauen
bewer@@
Florence
verhältnis
olive
Versicherungs@@
benutz@@
parlamentarischen
Safe
QU@@
prohi@@
87
schw@@
fewer
selec@@
ories
ager
Burma
hou@@
arm
Dänemark
entliche
constitutes
loaded
mehrfach
Coun@@
html
wooden
fot@@
begrün@@
buses
Intelli@@
Travel
ment-@@
exemp@@
agi@@
stet
angehen
zahlungen
Rechner
lit@@
Einen
manchen
gia
lla
ship@@
verständlich
bug
Cuba
üb@@
extending
Search
lüsse
imperi@@
Operation
klu@@
Bour@@
deserves
UR
veränder@@
Fahrer
IV@@
stake
Katalog
komp@@
Employment
timetable
fes
Revision
Firefox
Ticket
wertung
suche
nä@@
appro@@
gesetz
gastronom@@
var
zah@@
toward
crises
discount
umgehen
Inst@@
xis
snow
shore
Ner@@
Verbrauchern
sent@@
llen
maximal
Samstag
Richard
tar
Akteure
gast@@
Fei@@
Album
SAP
hinzu@@
loo@@
DER
dien
initially
Wasch@@
BM@@
ließen
tious
desirable
.net
solved
Nigeria
relationships
Typ
Stamm@@
differ@@
bearbeiten
outs
Zimmerbeschreibung
atur@@
aufzubauen
Hardware
Mexiko
alongside
tant
low@@
decre@@
solar
dend
Wild@@
hills
bten
rali@@
Govern@@
Nat@@
clock
ruhige
indoor
Nizza
progres@@
akes
vierte
ENT
willingness
interne
stische
enne
kolle@@
capabilities
grenzüberschreitenden
81
italienische
approaches
tagen
examination
erhoben
volles
hinaus@@
dial
financed
Können
äumen
hop
Pacific
fan
verbindung
sers
Frequ@@
radik@@
längst
porte@@
onal
considerations
Ausbau
composition
expense
tags
vacc@@
digitale
Wednesday
finanzi@@
Mädchen
gemeinsames
sz@@
Patten
completion
smooth
Visi@@
Amerikaner
terror@@
Ratifizierung
employed
verw@@
kle@@
bahn@@
Kommentare
dire@@
Truppen
anniversary
kennt
Traditionen
Fur@@
drin@@
Anmerkungen
reagiert
instantly
neun
superb
Reserve
peti@@
acks
campaigns
busy
gesellschaftlichen
definieren
Zuge
25.
chairs
Palma
Constitutional
inspired
moderni@@
Werten
bedürf@@
hinzu
commen@@
Scho@@
Objekte
Cock@@
addressing
Spezialitäten
Glei@@
ov
Zwar
meister
Fisheries
maybe
Find
saf@@
offenbar
kür@@
clicking
Nokia
Sound
versteht
chtigkeit
Seg@@
Human@@
momentan
Sowohl
Department
mische
FI
instrumente
girls
Sachver@@
branche
Auflösung
eries
IX
baus
hungen
istisch
Vordergrund
charm
studied
Nehmen
mag@@
arranged
Bildern
Ägypten
DV@@
DR@@
Meg@@
ausser@@
schwedischen
exposed
uring
GAP
Account
concentration
reis@@
chts@@
andal@@
references
chapter
iring
preferred
ech@@
appointment
Anbetracht
zugs@@
behand@@
nahme@@
flat@@
Bran@@
Ablauf
83
Marken@@
gesichert
Lernen
enjoys
frequency
Black@@
electrical
Make
hä@@
Society
Internal
UNESCO
debating
stam@@
itation
weilen
Read
ierungen
popul@@
codecision
beer
certified
Aspekten
generell
Full
Updates
roll
Konvention
geograph@@
thorough
arium
Transfer
löschen
believed
alisierte
Pir@@
Viel@@
M.
zusehen
planen
Valencia
Ausweitung
Bestätigung
IM
LT
instru@@
palästinensischen
Science
blan@@
Quell@@
Niederlande
veröffentlichen
west@@
Betrifft
stal@@
ökologischen
phy@@
miß@@
Ken@@
delete
Wegen
Serbien
prefer@@
Connec@@
ore@@
smoking
complaints
bürokrati@@
violation
Stell@@
vent
von@@
í
Erwachsene
hilfreich
world-@@
By@@
weltweite
Ly@@
geniessen
beteiligten
keineswegs
shor@@
CF@@
vollem
richtungen
hur@@
stimm@@
Erreichung
märkten
ausgehen
2015
wächst
travellers
Children
eben@@
Ange@@
Gebühren
Orten
ungst@@
legitim@@
Völker@@
oldest
genuinely
Schei@@
examined
gesucht
Die@@
empty
effizienter
H-@@
partial
Vorsitzenden
wur@@
zahlt
commit
KDE
zel@@
withdraw
glie@@
Beru@@
signing
stens
Vorrang
kamp@@
ares
Sekunden
repe@@
wä@@
nutzt
Metro
Kennzeichnung
ingredients
suited
noon
enger
ign@@
agne
paket
forming
schriftliche
Jerusalem
fern@@
intensiv
Rechnungs@@
technique
gestatten
chairman
foundations
Hum@@
Slovakia
Wissenschaftler
luss
regionen
HD
sums
chron@@
Several
erteilen
ownership
Fassung
Uns
erh@@
Immobilien
arischen
whereby
zierung
Widerstand
exec@@
Aussage
observe
hochwertigen
werks
garanti@@
kunden
acqu@@
gefährlich
Jon@@
alisi@@
î@@
betre@@
Spitze
gering@@
Insgesamt
Behörde
Edinburgh
ood
studi@@
Statistiken
condemn
ücken
trained
betriebe
Übergang
thri@@
herstellen
openness
üblichen
Bestellungen
überzeu@@
issen
partic@@
mäßigen
Sky@@
wind@@
Rin@@
enhan@@
Wichtigkeit
zweitens
südlichen
il-@@
1.5
bought
Riviera
günstigen
GA
Tarifa
chemische
accounting
ae@@
optional
seemed
height
Erlebnis
desto
Eines
Greens
Armen@@
regierung
gewöhnlich
autom@@
Cr@@
respects
vos
Lom@@
ept
cancellation
radical
theore@@
stag
Bücher
vary
eland
rän@@
Filme
tut@@
WTO-@@
Sens@@
Line
adventure
Ausrüstung
Zwischen
Otherwise
gegenüber@@
gon
mixed
umgehend
OLAF
Work@@
false
Poker@@
economically
Lis@@
kräften
aktualisiert
attri@@
Morocco
konsequent
fünf@@
Genau
beabsichtigt
cky
Downlo@@
poorest
repeatedly
tiere
kanische
describe
communic@@
zusetzen
vocational
vorsch@@
power@@
Rü@@
labor
teu@@
Hen@@
ständi@@
Aktu@@
Durchsetzung
Garantien
Andalu@@
secondary
Klarheit
speeches
Nichtraucherzonen
entsch@@
harmonisi@@
residential
Schüler
ho
ünd@@
begun
Feu@@
Jer@@
stätten
tags@@
Louis
loses
Michel
ahn
organiz@@
caf@@
URL
Einer
Argument
verbreitet
Dresden
mel
cken@@
revolution
nächster
anzuwenden
professionellen
Atlan@@
Ref
sozial@@
expand
freier
coastal
sizes
gesetzten
elegante
180
Entschlossenheit
pft
Sied@@
diving
beibehalten
ad-@@
Macht@@
hinzugefügt
Pflanzen@@
besonderes
iens
SK
lio
verurteilen
technologie
quellen
sozi@@
translated
schalten
Distribution
herzustellen
Lap@@
accuracy
Franc@@
proz@@
kohär@@
amp
alli@@
Amts@@
moreover
dei
guaranteeing
existieren
widmen
Kompetenzen
elektronische
Satz
Universitäten
Ech@@
gemütliche
gewidmet
getreten
beach@@
ultimate
charakter@@
Bevor
Nord
ungs
möglichkeit
nei@@
cookies
umfassen
contra@@
deck@@
compete
thaus
afrikanischen
logo
Ferienwohnungen
Deb@@
Souveränität
RS@@
110
forwar@@
papers
ex
achtet
Vic@@
deadline
Wahr@@
tolerance
genau@@
posts
tac@@
ank
bien
alternatives
Ehre
welle
K-@@
accordingly
Swi@@
Reinigung
nar@@
Haf@@
Einsatz@@
wai@@
informal
grund
Philosophie
boasts
Regen@@
til
integrierte
ghter
sco@@
halt@@
Three
iron
influ@@
sien
auswählen
trags@@
Existenz
Häfen
dien@@
funded
intentions
evol@@
fresh@@
Herkunfts@@
foremost
wick@@
d.@@
TE@@
wissen@@
Erfolge
Felder
Inn@@
Pot@@
clarity
projekt
befürworten
ück@@
Europa@@
fahrzeuge
ologischer
band@@
setzte
Ehr@@
Ay@@
Glück@@
Boot
häl@@
tains
Stiftung
listening
Lohn@@
erheben
underlying
Zeitplan
collabor@@
Kürze
domin@@
Diesen
bed@@
Netze
Wähler
escape
Non-Smoking
gab@@
erwiesen
eien
fire@@
Ideal
poker
ov@@
sely
enormen
Fischler
measurement
Himmel
Together
dist@@
Solana
appar@@
stur@@
lierung
zweiter
afraid
kleinere
1988
hohes
erkunden
Haushalts
Fabri@@
Edel@@
Schaden@@
elec@@
bedroht
kostenlosen
inspection
Entwicklungshilfe
innovativen
Main@@
Festplatte
guar@@
venue
lement
31.
ids
Vorgehensweise
External
schutzes
cope
gy@@
Nachdruck
concert
purchased
würdigen
ción
LAN
eding
less@@
gin
stärksten
Besitz
IMF
desktop
Denken
Ausblick
klären
incorpor@@
ausgestattete
ethical
günstig
Besonder@@
Betracht
legitimacy
Weiterhin
ardi@@
Billi@@
Kopf@@
oppose
Il
zugeben
revised
genauer
-und
jurisdiction
solch
Werkzeug
ization
Leben@@
Bekann@@
vertrau@@
Adri@@
Hof
falsche
sever@@
Problematik
Migration
Zielsetzungen
Wand@@
Tol@@
Schulden
6,@@
Stri@@
deiner
paths
Slowakei
künst@@
20th
becken
beef
ized
uneingeschränkt
hafter
subsequently
Gas
ly-@@
vertritt
auswirken
pes
Premierminister
terrible
kund@@
¼
losing
reibungen
E-Mail-Adresse
ental
Airlines
verursachen
Minister@@
früh
sample
gels
BA
flexi@@
answered
tender
Montenegro
erstes
Entwick@@
Ran@@
tax@@
erarbeitet
Fang@@
dollar
politiken
A.@@
Protokolls
accessories
Einzelheiten
Original@@
fik@@
ede
bots
Heads
spanische
berich@@
HIV
spectrum
rieren
Verwal@@
LIN@@
verl@@
Kommun@@
hence
vertraut
tragic
schü@@
Aktien@@
respektieren
stern
endor@@
formular
whatsoever
vorliegt
cit@@
Wahrung
comparable
jointly
ype
tätigen
vice
pas
ems
tivity
funden
delays
finanzierung
Leipzig
baby
GUE
24.
sitz@@
án@@
gewicht
managers
Series
wife
utt@@
transaction
Antri@@
fft
Program@@
over-@@
wirklichen
occupation
Brand@@
gige
förderung
Gruppen@@
dent@@
oli
verla@@
Miß@@
offiziell
erwerben
funktionen
wand
Moder@@
dramatic
östlichen
größter
moments
calendar
Cop@@
Schulz
erend
enjoying
endgültige
ires
classical
unterschiedlicher
tragedy
teilungen
adult
reit@@
flexibel
höchst
gegebenen
Ruf
journalists
affecting
os@@
anst@@
unterbrochen
aking
öffentlicher
Mittelmeer
Kenntnisse
Offenheit
Real@@
ahnen
mass@@
summ@@
W-@@
dependence
Venedig
städ@@
Ausnahmen
publish
Copyright
Übersicht
SL
full-@@
bekann@@
modify
doubts
avi@@
änder
potenti@@
remarkable
fortsetzen
klin@@
stattgefunden
Lehrer
pensions
theatre
transitional
Chairman
sional
poll@@
textile
Performance
Ursache
EG-@@
Tun@@
brauch
isse
predi@@
gestiegen
destroy
gehörige
Erarbeitung
entran@@
Modus
expanded
äden
anzupassen
bud@@
Fortsetzung
weichen
Lebensmittelsicherheit
expressly
gelegene
no-@@
ckets
Betreiber
plate
Spaziergang
kompliziert
Inflation
Kle@@
EIB
Export@@
lass
alise
afford
überrascht
Verfahrens
gerei@@
erheblichen
Engineering
Fleisch
new@@
Rechn@@
ehemalige
cop@@
manufactured
beweisen
stressed
Wind
width
Kit@@
Wit@@
zugestimmt
Marco
assurance
Filter
Bla@@
bigger
Lot@@
Sab@@
autumn
Source
Hit@@
DC
crow@@
mung
TV@@
stechn@@
Av@@
reibungs@@
religi@@
Landwirtschafts@@
hundert
130
Representative
Zuverlässigkeit
kün@@
reads
linge
hotel@@
Ausrichtung
Woh@@
custom
kit@@
A4-0@@
splendid
refused
ups
erkennt
obligator@@
ry@@
portra@@
geringen
igungen
drückt
up-to-date
Gute
Ingenie@@
erwähnten
Inhalten
berichtet
blind
Themen@@
medieval
mechanical
Km
cancelled
orie
Australien
matic
veran@@
bewegt
agu@@
Palette
advise
League
nes
victory
ständiger
commerce
erforderliche
seln
regionaler
lock@@
bits
standes
Joseph
ME
neg@@
Empfang
Alternativen
tribute
ign
Keine
arily
übermitteln
ähnlichen
arbeitungs@@
Chancengleichheit
vie@@
strike
Bit@@
Volkswirtschaften
zustande
healthcare
counts
refuse
Gegner
Automati@@
gestartet
ausführ@@
geous
Saint-@@
nötigen
angenommenen
bi
divi@@
zin@@
ideally
erfol@@
ao
Verkaufs@@
expenses
honest
Herr@@
representing
ij@@
Know-how
vermittelt
key@@
staat@@
Effekt
berger
promoted
declare
Experi@@
gon@@
arrangement
Sem@@
Arena
rufe
Drogen
viable
environmentally
datei
Cl@@
mensch@@
lights
hell
Empire
angebote
Laden
anten@@
Seiten@@
mäß@@
vorge@@
einiges
suspended
PM
convert
wehr@@
verbindungen
Tabelle
Tampere
falling
allo
üh@@
sunny
vi
84
ín
ktiv
elli
Düsseldorf
erleichtert
Massage
ausländischen
Kein
Run@@
Spor@@
Derzeit
diver@@
langem
schar@@
Sun
Zeu@@
kit
verwen@@
1986
erarbeiten
stopped
Café
angle
zip
Edi@@
unch
erklärte
continuously
gues
Mé@@
CA
schwan@@
deserve
gemütlichen
Stur@@
abe@@
ket
earn
olo
lively
maß@@
ope
verwiesen
ati
verabschieden
Ima@@
terminal
segment
fairen
entstand
Zivil@@
Aufhebung
biom@@
viewing
gepf@@
annt
mile
recall
geschäft
beispiel@@
parameter
zimmern
berühmte
Go
tatsächlichen
bruch
Aussagen
baut
fat@@
standardi@@
granting
Service@@
ille
Wünschen
Verordnungen
getrennt
Hör@@
gü@@
deutliche
suggests
gur@@
s-
Bak@@
conversion
maßen
secondly
Ms
Verteidigungs@@
importantly
technischer
ichten
kriterien
ktur
Mir@@
fascinating
Monte
Gottes
arbeiteten
dian
swi@@
300@@
Over@@
Bürokratie
Wie@@
Versand@@
Tickets
characteristic
esc@@
Immer
Weiß@@
Fig@@
Galileo
Garten@@
KG
Labour
BI@@
blicken
signals
Krieges
Rit@@
Partnership
removal
kapit@@
freight
quantity
frü@@
carte
nobody
relaxed
Ausgrenzung
Taten
affordable
devoted
chi
tips
eindeutige
ceiling
orientation
sport@@
basically
Docu@@
iPod
Frauen@@
closing
bedauerlich
tung@@
Heimat
Verfahrens@@
Contact
simultaneously
Level
Formul@@
artige
angeb@@
sprä@@
Rock
bewertet
ffs
rated
certification
fifth
drop@@
gence
Wich@@
smart
änge
mechanismen
bon
Finnish
Jewish
Modern
ago@@
präzise
Alps
vorsieht
leistet
zugelassen
Gemeinden
bran@@
Klassi@@
Brücke
rev@@
excursions
liz@@
Beschränkungen
Hein@@
behauptet
geeigneten
D.
affili@@
verpflich@@
ratified
Quark
forgotten
Strom
gemessen
dienstleistungen
bewus@@
Rechnungshof
fungen
absurd
Urheber@@
beneficial
aben
Siemens
ke-@@
Mittwoch
kombiniert
zentraler
principal
gemeinsamer
Steigerung
komplexe
Kau@@
Bureau
wel
Presidents
vermieden
mid-@@
Export
menge
ña
Abbau
Super
befürwortet
Bürgerbeauftragten
PPE-DE
aush@@
postal
residents
GT@@
instruc@@
üsse
sender
depth
fragt
Minibar
Steuer
Jean-@@
Nordic
fell
authors
spots
privati@@
verbreit@@
fter
lassung
integrity
horse
pain
vertrauen
geren
öse
mechanismus
toilet
installations
icht
arrange
Ministry
Werkzeuge
logic
Dur@@
chat
dring@@
übt
atri@@
nich@@
Tief@@
Roth@@
stren@@
begegnen
Plätze
han
angekündigt
dieselben
1980
notified
Dynamik
fuhren
tropical
ehe
perpet@@
Kie@@
civili@@
judge
geehrte
gewünschte
umfangreichen
Schle@@
Komple@@
änderungen
taus@@
22.
vals
subscribe
Audio
Minderheit
ample
specially
perio@@
der-@@
schedule
trei@@
wheel
natur@@
icht@@
deci@@
Speci@@
mines
Ky@@
pay@@
exist@@
ris
Verheugen
grenze
könne
Stahl@@
lette
high@@
Zweiten
gift
branch
anpassen
arts
verstän@@
Sports
Anträge
Youth
Verabschiedung
quest
Klimawandels
undertake
stein@@
acceler@@
apparent
derart
zeigte
verarbeitet
Green@@
prob@@
bac@@
broader
Distri@@
gieren
vere
g.
fix@@
Abteilung
derselben
Abgeordneter
mur@@
ignore
renewed
zero
preparations
releases
asset
medizinische
loans
Privatsphäre
dimensions
designer
authorized
Times
teuer
Big
destinations
kurse
preserved
ien@@
wise
Rural
Jahr@@
Ford
Lager
mand@@
gebühren
alled
davor
turns
margin@@
zwischen@@
Brü@@
Hafen@@
gebäude
inclusive
Library
downloaded
stering
berührt
gehe
Stau@@
Binnen@@
spüren
motorway
vac@@
Liberalen
viewed
Santer
Sieg
populations
Alters@@
Kommissionspräsident
verzer@@
Glau@@
typisch
fuhr
Schnell@@
Oli@@
Ander@@
institution@@
tigte
innere
trains
ea
gerungen
Francisco
anerkennen
herrsch@@
focusing
visits
survey
Nachmittag
Block@@
Moscow
Haiti
zurzeit
fertigung
buying
Schau@@
niedrigen
tension
Besu@@
shing
catalogue
Foot@@
Lieferanten
Bay@@
ansch@@
credible
kurzer
Select
certainty
alls
pic@@
Soldaten
gebung
duration
thro@@
Al
inneren
stops
Rennen
Solar@@
rub@@
Fischereipolitik
Erhalt
FC
verzichten
lebenden
komplexen
UP@@
debated
Gewi@@
Lud@@
trouble
Lateinamerika
observation
Eröffnung
Konzer@@
fitted
ool
Excellent
archive
zweck@@
violent
Bek@@
drängen
Growth
Lun@@
Hände
Angabe
interess@@
Weine
cameras
Cit@@
komfortablen
wirft
audience
mini
Funktionieren
eigentliche
felder
ierungs@@
mir@@
position@@
negotiated
Phi@@
küste
Schmi@@
einhei@@
xel
Schwellen@@
chemicals
composed
Samsung
bak@@
Bauern
ened
Set@@
Ach@@
Comple@@
nationals
beruflichen
prinzip
Everything
Jesus
Georgien
attra@@
iner@@
feder@@
evaluate
evi@@
supplementary
ffe
sibility
Wellness@@
bonds
Südafrika
posted
handels@@
Autor
prevented
Palestinians
79
führungs@@
verschaffen
Past@@
featuring
Ereignis
Mar
organis@@
knew
Muslim
Event
Betrach@@
rela@@
fantas@@
jährlichen
indicators
eleganten
eröffnen
sake
bank@@
Für@@
scar@@
sofa
methode
Zunahme
Southern
belongs
zierten
tone
marktes
relief
dieselbe
zy
schenken
24-Stunden-Rezeption
weit@@
Deposit
integrieren
organize
ault
Schicksal
Menschenrechtsverletzungen
Fisch
telecommunications
abgeben
å
gehabt
attended
behandlung
empfängt
t.@@
geringer
gegenseitigen
centers
Umstände
schwi@@
Arab@@
marking
prize
creature
23.
neighbourhood
short-term
Südo@@
Asi@@
arrest
alisierungs@@
whenever
erweisen
applicant
enor@@
necessity
ecks
surveillance
traum@@
pair
Ausbeutung
geisti@@
mmen
Beglei@@
aching
relevanten
lining
tariat
Begründung
ador
angenehme
yo
dahin
Meinungen
prospect
normen
tigten
maps
venture
explicitly
admit
Max
Stan@@
fikation
Burg
mandatory
begründet
feedback
blick
imported
electoral
dasselbe
Mobil@@
lusses
nü@@
Bergen
specify
wunderschöne
Wichtig
planung
authorised
1985
formuliert
endgültigen
certificate
insufficient
oli@@
ury
ih@@
agen
Arch@@
einstellen
rene@@
focuses
ruppe
Augen@@
DN@@
Übernahme
Wett@@
moderner
besser@@
identification
missed
ware@@
Bevölkerungs@@
pol
plane
GP
Zerstörung
bird
izing
terung
sensor
Provi@@
interessanten
sicherer
iet
xed
ursprüngliche
Clubs
Installations@@
höchster
nicht-@@
bureaucracy
Erzeugung
frequent
researchers
Wettbewerbs
tial
thei@@
brands
Fremdenverkehr
einführen
negotiate
GM@@
fare
herrschen
tonnes
abgegeben
tion-@@
1987
Doha
territories
neutral
Baum@@
Energiequellen
whe@@
Händen
leichte
erlassen
teln
kräf@@
Inc
aufnahme
überwacht
Kapazität
terin
mittlere
Until
Water
employers
finds
Corporation
gingen
Wäh@@
isierung
Order
persi@@
Raums
Glob@@
Stufe
ausreichende
Funktion@@
tigh@@
Menschheit
uncertainty
lica
gradu@@
Schil@@
gla@@
relate
trenn@@
Avi@@
thers
gerechnet
distinction
verteilung
gravier@@
entspann@@
Sex@@
Anreize
leh@@
labor@@
schnitt
pack
öffnet
sul@@
transit
tten@@
Proz@@
Wissen@@
ful@@
greenhouse
Rußland
äuß@@
Schie@@
freu@@
holder
schönes
Schü@@
engen
redu@@
diagno@@
umso
GO
adjustment
basieren
Sicher@@
para@@
eure
Gesicht
inspiri@@
Gui@@
Formulierung
würdi@@
ressourcen
steuer
späteren
streben
medizinischen
dog
magn@@
Engli@@
Islam@@
meldung
interven@@
gerechtfertigt
Menschenrechten
Beschluß
Elevator
wünscht
Satelliten@@
Brow@@
Handlungen
passieren
xe
ax@@
Mischung
hing
aufgeführt
aled
connec@@
tia
patents
Funktionalität
GPS
hire
Zus@@
ehrlich
machinery
replacement
schätz@@
mün@@
facilit@@
realisiert
Bewusstsein
cles
durchzusetzen
läufe
hang
rums
tausend
worrying
instal@@
Patri@@
coordinate
bag
cir@@
plätzen
farms
CO
zeichnete
Zucker@@
zzo
occurs
Inv@@
arbeiter
herum
Freizeit@@
Press
erstens
conventions
Spre@@
UK@@
einstimmig
Versorgungs@@
Chin@@
lossen
IBM
progressive
eve
Terroristen
Bezeichnung
kte@@
proximity
deaths
privileged
Insel@@
geringe
Visa
ali
Kurz
inakzeptabel
abgesehen
Verts
Szen@@
Sä@@
histor@@
mon
agrees
utes
Händler
gestal@@
automotive
Wiederherstellung
tiker
allocation
inci@@
wachsende
nem
sonstige
Anbindung
erie
DS
Prof.
Beschwerden
Beratungen
Bauern@@
milit@@
v.
Ordner
Finanzen
Automobil@@
lei
edy
Schutzes
verarbeitung
univers@@
bahnen
Tari@@
Blair
Seele
drives
ution
Herkunft
Bab@@
chose
genießt
bewegung
Bett
unde
thanking
angegebenen
Zurich
sey
onds
tradition@@
Versprechen
Verfolgung
Million
problemlos
kunde
kostenfrei
fails
lac@@
Öster@@
Heimat@@
timely
resul@@
occupied
iles
Arts
bour@@
ökonomische
maj@@
zones
vorgehen
Radi@@
zo
mistakes
spare
unstable
hielt
Gaz@@
chers
elen
California
Village
Kün@@
schir@@
überra@@
vez
Volkspartei
.ch
Audio@@
Gem@@
empfiehlt
officially
Berei@@
Adressen
zeichnung
justify
EURO@@
Inkrafttreten
habt
at-@@
ablehnen
österreichischen
collapse
ür
threatened
Türen
General@@
Tak@@
Energiever@@
klen
Anzeige
heated
AKP-@@
SDL
NRO
innen@@
unanimously
Gerä@@
err@@
lad@@
hört
pum@@
gelingen
precision
plant@@
achievements
holi@@
angebotenen
religiösen
Verlängerung
Nation
maximale
heit@@
erstreckt
stützt
erische
faire
bedro@@
beruhen
lös@@
publications
boxes
Cologne
ses@@
gelernt
Jugendliche
gnisse
fit@@
sized
Samm@@
slopes
Aufenthalts@@
argue
Fakten
dargelegt
XML
IA@@
Produktivität
logistics
dauern
taxpayers
bezogen
arri@@
returns
Zusammensetzung
onia
Bun@@
Beamten
ester@@
aufgestellt
bab@@
Schnittstelle
civilian
Illu@@
vereinbarten
beschleunigen
tempor@@
ktiver
pressed
horizontal
licht@@
orientierte
industriellen
Vertrieb
emission
Erwägung
sogenannte
situ@@
experi@@
sandy
dero@@
interactive
liegende
Fahrzeug
Obviously
qualifications
movies
hem@@
Mobili@@
gebau@@
geladen
austausch
soldiers
indicates
Kön@@
comprises
Clar@@
Language
Strah@@
nee@@
dün@@
flying
eingeräumt
Program
typically
essing
här@@
comb@@
Marokko
Demokraten
Tat@@
ßten
Gut
ander
24-Hour
Sav@@
hl
herunter@@
kleineren
act@@
weis@@
trags
Wälder
cio
Drittstaaten
rom@@
split
MI@@
Zahn@@
Scotland
ophi@@
jeglicher
generous
consistently
Einnahmen
emphasi@@
fications
chner
Betrug
leihen
emo@@
arbitrary
placing
question@@
Erweiterungs@@
vereint
Wat@@
Ausgangs@@
procurement
Schuld
9001
neo@@
1945
ranging
zwölf
Halle
Belastung
einnehmen
Verfasser
Heating
May@@
pattern
Schulden@@
unzu@@
Charme
Olympus
shar@@
som@@
gebe
contractual
fts
urg@@
patterns
hesitate
promenade
react
displays
promising
Wall
harm
downtown
wärts
SS
alien
tigem
precious
ops
nets
7,@@
zugute
`@@
Olympic
Versuche
unden@@
wäl@@
UNG
soul
tise
gelegte
celeb@@
organisierten
Metall@@
lassungen
vorschläge
Install@@
pon@@
symboli@@
Original
cancel
feste
Arti@@
Lul@@
Vermögens@@
größ@@
rational
handled
Luggage
publishing
Klin@@
decor@@
vermutlich
Einschränkungen
geteilt
treas@@
book@@
anforderungen
geräten
intervene
Referendum
Saal
sad
fahrts@@
Verletzungen
Cast@@
sailing
Beurteilung
Register
Weltkrieg
edit
vorrangi@@
Inspe@@
Ergänzung
Monte@@
orien
sagten
stücke
kritischen
einzig
e-
Which
rahmen
IP-@@
nachzu@@
schwieriger
heutzutage
gebunden
n-@@
tower
actor
Föderation
citizenship
entries
Monti
elderly
bens@@
kredi@@
TM
elegan@@
twin
nur@@
effizienten
Rahmenbedingungen
Demokrati@@
Bonn
Rückgang
reflection
Bahn
externe
Ausschüsse
thir@@
measuring
Dritt@@
Kohlen@@
Governance
rung
eignen
erneuerbaren
breach
verstärkte
europa
purchasing
Val
erien
Pum@@
stil
Att@@
tioning
landschaft
rac@@
ratio
vir@@
geplanten
läge
Publikum
realize
Strategi@@
FR@@
tels
DR
organisierte
nete
platten
Solche
pper
tauchen
Lissabon-Strategie
Richter
retten
mist@@
tries
eting
unusual
competences
Kel@@
eintreten
Co
Gö@@
Glas
bisschen
moves
luß
emplo@@
sq@@
Gut@@
eingeb@@
stim@@
Dum@@
Grünbuch
beschließen
invo@@
kehr
dual
Choose
institute
terien
Olymp@@
ep
Hussein
Sto@@
aussehen
Spy@@
Mengen
ingu@@
geachtet
Summe
Köln
Third
faszini@@
kunden@@
insofern
Ful@@
gos
scre@@
Digital@@
frau@@
leidet
Kuba
Doma@@
experiencing
Left
wertvolle
Product
conservation
eigentlichen
sisch
Conditions
Yo@@
Presse@@
boden
Strasse
anna
Geben
the-@@
revealed
drucken
betten
premium
License
valu@@
automatische
Schö@@
ordnungsgemäß
Wetter
VI
spätestens
Konfiguration
respektiert
William
initiated
consistency
zeichneten
arabischen
rey
30-@@
Fast
Fünf@@
sit@@
Jean
tages
sub-@@
defining
überein@@
Experience
Start@@
lighting
tum@@
catering
Ski
zweif@@
entlichen
contributing
Termin
Freuen
motions
cache
streng@@
Sri
Getränke
streng
ax
gratis
ausführlich
verzeichnen
Cin@@
erlangen
crops
Linien
glichkeit
ausländische
Dal@@
Fans
borne
Konflikt@@
kommerziellen
LAN@@
bedauere
notably
locate
140
mid@@
harbour
dres@@
Photo@@
differenti@@
Feststellung
Sitzungen
Santiago
doc@@
icon
Gepäckraum
grand
ession@@
sheets
dal@@
Quad@@
asti@@
eing
2.5
inhal@@
Force
Grundsätzen
Objekt
condi@@
älter
Still@@
irische
koordini@@
structured
stays
technologische
slowly
29.
converted
dena
blieb
monuments
edly
cali@@
verz@@
konzep@@
Liberal
Lar@@
ION@@
Intensi@@
Emissions@@
gestellte
Kreuz@@
Gewinn
Präsentation
emerged
demokratisch
goo@@
berufen
rist@@
atten
Schreib@@
editor
black@@
passende
kämp@@
aturen
beliebigen
Medikamente
eigenem
provo@@
teilzunehmen
Wireless
kä@@
exhibitions
alike
cooking
Verteidigungspolitik
verletz@@
unterscheidet
Besteuerung
rol
sende
Schwarz@@
disputes
unknown
heavily
grü@@
Origin@@
RSS
Pflichten
unterbreiten
auseinander@@
king@@
Anhörung
SW@@
bic@@
OECD
derjenigen
erörtert
Nav@@
umb@@
Ce@@
glaubt
kn@@
pursued
GE
lokaler
fa
haus@@
systematic
aul@@
gebraucht
trop@@
mani@@
innovations
guard
kei@@
demonstrates
jahre@@
Georgi@@
coal
Rassismus
Vertretung
staatlicher
Desktop
siven
größe
fulfilled
acquisition
Schengen-@@
zunehmende
unions
Chief
amending
Ltd
virtu@@
sovereign
schlechte
Tradi@@
konkur@@
gegeb@@
Abstimmungen
Bewohner
Mehrwert
Arbeitsgruppe
wirksamen
bene
Vul@@
suggestion
9,@@
stützen
Einwanderer
disappointed
eted
recep@@
sculp@@
Kernel
biodiversity
aggres@@
apar@@
zwanzig
unemployed
betri@@
enheit
Syria
künfte
gewinnt
Tam@@
leitungen
ENT@@
drinking
imposing
ernsthafte
Geschäften
Holland
abe
vernünftige
atively
gerich@@
warmly
Logik
Konferenzen
dges
verpflichten
Tag@@
Ausübung
fahrten
Palacio
acquis
exhi@@
settled
directions
blame
tranqu@@
alisten
Großen
Tower
Gebäuden
Prag
Berlin@@
literature
Deutschlands
Art.
kreis
confi@@
Solutions
controlling
apparently
Steuerzahler
academic
Hotelsafe
gan
Repräsent@@
caught
SC
punkten
nieren
decent
retail
m.
chinesische
painting
Gebir@@
Index
vielsei@@
entlich
Kreu@@
Fli@@
vernünftig
accommodate
rats
announce
gang@@
weitaus
lem
reno@@
Wald
aktualisieren
kostengünsti@@
investiert
Mode
wahre
phot@@
Lithuania
hunder@@
accum@@
Hans
adjust
mern
airline
realistisch
versehen
humanity
Tech
claimed
exposure
qui
qualit@@
liness
Kämp@@
bearbeitet
konstruktive
zierte
eingeladen
compli@@
Friedens
3rd
esta
Ministerpräsident
treaties
Zimmerservice
newspaper
Gum@@
jüngste
Gan@@
Unternehmer
schn@@
emphasised
flicht
Phänomen
Editor
Fremd@@
bezeichnen
ühr@@
starkes
rever@@
Milan
bewirken
robust
fortgesetzt
Hung@@
favorite
tle
chtigen
Reader
Brau@@
26.
verwirklichen
ausstattung
Unterzeichnung
Prakti@@
potentially
threshold
Studios
primi@@
ility
Gewinne
Energiepolitik
ruling
Konta@@
bureaucratic
Übereinkommens
Double
pru@@
lowing
eig@@
alists
Dri@@
Einschätzung
Bridge
brü@@
pho@@
approx
à@@
periode
alp@@
emerge
copies
schlech@@
folglich
Madeira
Produzenten
ffer
En
substan@@
bereit@@
Kontra@@
Unterlagen
Ungleich@@
gesammelt
protest
Fitness@@
t-
happ@@
doppelt
ök@@
bä@@
assured
Vertre@@
komfortabel
Yugoslavia
Anwesenheit
Wikicars
onien
appreciated
Gipfeltreffen
facto
EIN@@
Futter@@
Innerhalb
biological
HP
schaftsp@@
tube
fenster
lovers
stattdessen
History
gne
ST
tioned
laser

cut@@
alarm
Arbeitgeber
Spektrum
Erforder@@
Gärten
antwor@@
149
englischen
consult
rez
station@@
Mob@@
terrorists
technologischen
Spannungen
Leuten
Rab@@
insul@@
FOR
mp
anning
bedienen
Proje@@
fuels
nier
pet@@
Peri@@
avoided
aufgerufen
pling
Regionalpolitik
vorbehalten
pursuant
ret@@
degrees
simul@@
findings
belieb@@
Wesen
Erk@@
pays
Tuesday
wherever
regulate
ruhiger
elf
IWF
Subsidiarität
Feuer@@
declarations
sonstigen
meantime
passion
Prävention
Bildschirm
Pr@@
BS
zentrali@@
whi@@
minimal
leather
poin@@
drafting
Consi@@
breit
zips
Trend
concent@@
specifications
Everyone
schöner
gebnis
Datenschutz
beizutragen
halten@@
abilität
thoroughly
mens
namen
angelegt
nachdenken
Dou@@
wirkungs@@
deu@@
Inclu@@
etabli@@
spektakul@@
Schmer@@
agt
tough
Französisch
schnei@@
Similarly
Bestell@@
Lager@@
Gy@@
mien
Ry@@
ress@@
grenzüberschreitende
Look
Cala
Picard
bewiesen
winner
tas
anony@@
eingeschränkt
einhalten
clothing
Abschluß
übermittelt
Os@@
Gebühr
Tä@@
Alpen
Master@@
Außenminister
Bli@@
ließ@@
flug
kontinuierlich
meldungen
cus
legislat@@
confident
Gallery
Kräften
esa
sentence
geschafft
1,5
interinstitutional
onic
fangs
High-@@
deutlichen
vielfältigen
Gali@@
holes
ausgewählten
magne@@
sichert
nachhaltig
Sac@@
rem@@
inte@@
schließe
patri@@
sos
machten
Fernseher
Designer
Parliamentary
Palästinen@@
Laut
Beschäftigten
berichte
zielt
läne
pak@@
geld
gericht@@
ple
Spon@@
Virus
Osteuropa
Beijing
unterstütz@@
rücken
OP@@
Terminal
gelegten
leid
erfasst
convince
Amp@@
platforms
José
Geräten
dep@@
tened
alleine
lichkeits@@
Konzentration
demokratischer
Bewältigung
continental
vielfäl@@
withdrawal
deficits
spielte
Merkmale
Release
erwähnte
snow@@
Slovenia
Fak@@
BER@@
keeps
deutsch@@
controversial
afri@@
Alber@@
ärmsten
behavior
oberen
Part
abschließend
beabsichti@@
ambition
bür@@
erb@@
unterbreitet
gesundheits@@
architectural
fam@@
But@@
column
beinahe
Dritter
fehler@@
traums
lehnt
qualifizierte
Industrial
Mittelme@@
differ
Tob@@
bilateralen
Metro@@
undertakings
tica
Sing@@
sech@@
hospital
stones
AKVIS
Intervention
schrittweise
birds
Kabel@@
gische
komm@@
Diplom@@
acci@@
völ@@
voneinander
powered
favourite
ature
Mot@@
esi@@
Instru@@
rest@@
terer
workshops
eled
kontrollen
temperatures
regrettable
ide
proce@@
Fußball@@
journ@@
integral
partnerships
isten
Techniken
oured
downloading
Van@@
gefährden
geistigen
ältere
lichste
state-of-the-art
premises
incentive
bindung
Additionally
Argentina
modernes
stete
Ot@@
ät
Brok
400@@
verschmutzung
regimes
monitored
eradic@@
hosts
Wikitravel
Lanzarote
ebenen
intense
hn@@
ua
gesonder@@
büro
akzeptabel
Defence
Malaysia
wies
Lasten
Missbrauch
attrac@@
inj@@
Neues
ears
28.
demokrati@@
aks
illing
noticed
JP@@
Sz@@
magic
detaillierte
agen@@
Panasonic
Subventionen
Handy
ji
Krisen
Ferien
normale
operative
Gespräch
Bühne
fehl@@
activated
Nonetheless
ruft
bibli@@
sorge
lowest
ratifiziert
Früh@@
legten
stret@@
oter
Fluggesellschaften
nutzbar
hard@@
erheb@@
PCs
Betrieb@@
swit@@
vorgesch@@
sound@@
Develop@@
lüssen
kap@@
bürger
ato@@
ligt
supple@@
aces
receives
Hou@@
Fair@@
Tut@@
mini-@@
ESS
Gemü@@
preliminary
IR
deliber@@
ösen
ules
einzugehen
Clearly
reas@@
unding
360
tec
probieren
substantially
solven@@
Process
rage
beeinflusst
Hunder@@
bestens
Vene@@
Visit
Technical
itäten
pet
Kontin@@
login
eurozone
prohibited
bags
Beste
top-@@
Spri@@
quot@@
silence
Gestatten
Bosnia
Phot@@
Wort@@
controller
etri@@
benden
Country
hef@@
Rac@@
veranst@@
dou@@
coverage
infl@@
Aro@@
dachte
automation
PK@@
Route
Tennis@@
Das@@
eingerichtete
alistischen
Soweit
roo@@
statistical
bildungs@@
übergeben
Bezahlung
gelt
Zuständigkeiten
Vorgaben
bereitung
strenge
endgültig
Extra@@
Konstruktion
zellen
eur
exchanges
Gerichten
Zü@@
ika
perspectives
Christop@@
außen@@
respectively
kö@@
verwalten
gewünscht
kampf
Jan
undermine
breaking
Anwen@@
Democratic
salon
erre@@
graphy
Katastrophen
getötet
Goo@@
nos
orienti@@
Socialists
Physi@@
concerts
affung
Histor@@
präsen@@
thesis
blichen
strengen
dic
verzö@@
talked
ingt
ös
Catal@@
plates
adju@@
loved
terungen
Justiz@@
Transaktionen
Freiwil@@
ruf
angewiesen
mic@@
handed
bewahrt
Game
daten@@
conduc@@
performing
Buchungs@@
Galerie
restrict
watching
Geno@@
digit@@
68@@
erörtern
Büros
rubber
wording
schein
Daniel
erklär@@
Heil@@
Features
raises
klär@@
intelligence
Konkurrenz
Taste
inu@@
wen
Kaffe@@
ally-@@
ohnehin
throw
vergeben
agent
gangenen
Ministerrat
ftung
compare
consequently
tnis@@
Vorfeld
ungere@@
unterwegs
kritische
Mani@@
Öko@@
ausführen
zehn@@
U-Bahn@@
pharmaceutical
Well@@
Aktualisierung
kultur@@
Unterhaltung
neten
trennen
artificial
aer@@
basierte
arge
ungeh@@
mäßigkeit
flag
tali@@
teilte
mentary
würdig
judgment
fiel
belt
advis@@
Drive
Rubrik
gelei@@
passes
choosing
essence
-in
Her
nie@@
zell@@
tations
Kinnock
ahl
visitor
Come
PAR@@
1979
18th
dollars
Volk@@
setup
wra@@
Betroffenen
etry
igten
centrally
measured
licence
xy
dominant
Nar@@
empfin@@
Fähr@@
registriert
gefährlichen
isolated
Info@@
gewisser
frucht@@
blatt
Profil
wiesen
orientierten
benannt
diger
rix
Tool@@
unerlässlich
exklusi@@
Bedienung
realen
Nacht@@
CC
finances
ria
PE
beurteilen
Prize
Macedonia
dat
craft
Güter
pleas@@
ml
Tourismus@@
TEN@@
erläutern
Hence
Darin
Frü@@
recycling
Konzepte
registri@@
plötzlich
develops
gründete
workshop
practically
Aktivität
enlarged
Innovations@@
abstra@@
erweiterten
Voyager
hed
Bewertungen
ziel
iche
befrie@@
koh@@
demographic
Lobby
Mobiltelef@@
Ros@@
Feier@@
zunehmenden
erischen
bath@@
gutem
defe@@
etzung
erinnere
checking
änderung
ennen
fühlt
omen
zol@@
chro@@
ermutigen
elemente
Wille
simplify
churches
expanding
gaining
komplex
tangible
News@@
konsequ@@
transatlantic
vorhin
Innov@@
Reich
3000
zur@@
Scha@@
Richtlinien@@
signi@@
CP@@
verliehen
wahl@@
senior
Syrien
Sevilla
wages
Meister@@
amend
Güter@@
Koordin@@
Zimbabwe
photographs
plain
Beg@@
quelle
separately
camps
zon@@
bill
vels
damaged
Jacques
äck@@
Erzeuger
räum@@
Seen
authentic
Dienstleistung
Aufnahmen
Budgetary
ulen
unzureichend
fliegen
uen
battery
austau@@
shots
auen
jemals
CH
shortcomings
survi@@
silver
dents
vorange@@
creativity
Europa-@@
verantwor@@
aufgaben
Lich@@
racism
como
erneuerbare
vel
ansonsten
krieg
ate-@@
DP
catastrop@@
Haushalte
specialities
Verträgen
day@@
nonetheless
dlichkeit
Tö@@
Pom@@
abhängi@@
produkt
reichung
vertreter
gefährliche
zentr@@
pregn@@
Gemäß
größerer
I.
Erfol@@
basierten
Profession@@
Erwer@@
Danke
üblich
rel
confusion
ignored
estimate
r.@@
Dok@@
Rand
struc@@
open-@@
beiträgt
brenn@@
tat
genetic
langes
acquire
handels
fting
Unsicherheit
strange
ancy
Peace
protokol@@
after@@
enttäuscht
ausgesch@@
Archite@@
penalties
orientiert
Anhang
berufliche
tured
Drei
Äußerungen
Kandidaten@@
verage
fertigt
schreibt
russische
ticul@@
Ein-
IL
foods
Simp@@
ttern
Überarbeitung
Studium
glei@@
gging
ebs@@
ller
irgendwo
fts@@
Bud@@
Lebensmitteln
beschreibt
care@@
führungen
stoß
konvention@@
po
Medizin
genehm@@
musikali@@
arom@@
fizi@@
Maxim@@
accepts
familien@@
District
forums
recession
Korre@@
defen@@
devi@@
vigor@@
qualifizierten
erzielten
UND
C5-0@@
exceptions
bedenken
Stei@@
ligkeit
3D-@@
steuerung
tool@@
aded
Arbeitsbedingungen
Angriffe
mut
dental
unterschie@@
nah
zielen
DH@@
Verluste
unvergess@@
polnischen
CAD
ECO@@
registrieren
angeschlossen
begrenzte
Jag@@
ér@@
Vermittlung
sar@@
versicherung
etr@@
geordnet
pren@@
derartigen
änder@@
teacher
gle@@
vern
Weiterbildung
beginn@@
kritisch
expressing
en.@@
27.
Zurück@@
samkeit
unfortunate
Abstimmungs@@
Rhein@@
drück@@
grundlegender
konzept
Kapazitäten
rem
mithilfe
ira
FL@@
Theorie
erfahr@@
Luxus
fisch@@
prestigious
Class
Eigenschaft
Tochter@@
interessieren
Mazedonien
örtlichen
restau@@
Sili@@
ethnischen
kurzfristig
keinesfalls
keen
lacking
headquarters
Hektar
lea@@
konzipiert
falschen
presidential
korre@@
well-being
Vill@@
Heimatland
Darfur
frischen
Referenz@@
Anregungen
Finance
mitgeteilt
oul@@
einst
bone
dete@@
Anweisungen
coordin@@
Kö@@
File
Anreise
Regulierungs@@
conveniently
DIN
turing
rid
slau@@
Istanbul
Mittelmeerraum
teilten
geholfen
Optimierung
inquiry
dez
alistische
condemned
dierung
Kirchen
negativ
Venezuela
Ath@@
clu@@
freundliches
outset
israelischen
lesson
frist
Dest@@
follow-up
Karl
Beruf@@
Hôtel
Gipfels
beruhi@@
Entspannen
deutet
ef
Gulf
fizierungs@@
drafted
angeben
Pur@@
ados
nel
dium
erbaut
Zul@@
chens
Change
haftet
Traum
fün@@
Muster
sexuellen
Rek@@
tiefe
ght-@@
ached
mündlichen
kreu@@
Konzep@@
irgendwelche
rom
Deep
incorporate
Consulting
Iraqi
buil@@
tetes
aten@@
zuge@@
energ@@
Lido
infringement
wü@@
prece@@
TV-@@
spei@@
harmony
translations
Nom@@
wahl
Citizens
Laser@@
35@@
rechtfertigen
Ibiza
kritisiert
BE@@
Behin@@
ver-@@
theater
Generaldire@@
rable
sses
Alltag
einher@@
Sometimes
andt
ext@@
Interface
gym
simplification
Ocean
erfolgte
würfe
neben@@
Flugzeug
wendung
beobach@@
Entschließungs@@
victim
Milli@@
deleted
ordnungs@@
integri@@
Leu@@
treff@@
benef@@
tape
Kreativität
Sus@@
Ten@@
feiern
Shops
Haushaltsplans
flowers
Frühjahr
21st
Israelis
promo@@
Call
Pit@@
Konsultation
Kurse
Arbeitnehmer@@
mail@@
Close
weiterzu@@
voters
batt@@
außerord@@
gegenseitige
worry
sätzen
Work
stän@@
Milosevic
seaf@@
dnis
Stadium
self
incredible
reiben
ministeri@@
yment
Merk@@
beizu@@
verbesserte
compo@@
backs
PSE
Verantwortlichen
Mann@@
parado@@
typische
bilder
mie
hat@@
deemed
widri@@
EMU
Chr@@
guides
ggling
voran
Touren
lege
Naturally
hüb@@
Rahmenprogramm
doctor
Pel@@
Wissens@@
Onlin@@
kommende
nisses
schlechten
Fried@@
Umweltschutz@@
Besitzer
spä@@
fought
Integrations@@
INTER@@
lier@@
Bug@@
indication
unt@@
discher
vorn
Roman@@
pro-@@
hoped
asen
muy
schläge
einzubeziehen
Millennium
BL@@
Arzneimittel
Wettbewer@@
acknowledged
politan
Muse@@
nbsp
Apache
oting
Ass@@
Beratungs@@
1984
Sper@@
connecting
indu@@

gabe@@
chest@@
correc@@
Ernährungs@@
view@@
Four
span@@
fold
underline
sporting
sw@@
eingebunden
SMS
chambres
eras
Leiter
Gefängnis
die@@
J.
debi@@
solide
Kapit@@
partei@@
skilled
reiterate
Chinas
globaler
hersteller
Erbe
wars
einzuhalten
discre@@
Streit@@
signature
ssa
Dienst@@
gelung
ranken
Kernkraft@@
optical
Albania
embra@@
forcing
realisieren
rob@@
hiermit
sicherungen
Finanzmittel
governed
entscheidet
enza
Beruf
searching
resse
griff
econom@@
yang
shaped
kab@@
phi@@
Städ@@
EST
Wiederauf@@
propor@@
curi@@
Pflege
derten
schil@@
insu@@
Feld@@
complexity
institu@@
surfing
fate
Net
3.0
reiz@@
administ@@
Organization
emer@@
streaming
Benutz@@
reverse
geschäft@@
ignoriert
cheaper
verhäl@@
Gesprächen
block@@
Wales
bekräftigt
Textil@@
Fragestunde
half-@@
Ecke
vereinfachen
Taus@@
bevorstehenden
pf
outs@@
Rä@@
Currently
govern@@
veget@@
kids
gerweise
endem
begleiten
Ze@@
Ähn@@
Namen@@
capture
Banken@@
tionality
Trink@@
tailored
CM@@
transformation
kommun@@
sheit
eas@@
Aires
Tempo
plä@@
Attraktionen
blä@@
franzö@@
Übersetzungen
runde
Kredi@@
environments
circulation
quota
Aufforderung
vermögen
accepting
acknowled@@
Buenos
goti@@
gst
deck
Ratsvorsitzes
bens
immer@@
sear@@
vorteil@@
reduces
Kn@@
zten
CAR@@
verwaltet
describes
lakes
forderte
eindrucks@@
enters
elektron@@
warming
mig@@
paradise
ultu@@
amtierender
Schattenberichterstat@@
cts
CE@@
450
bedien@@
utzen
wör@@
telling
fault
internation@@
meistens
genehmigt
konto
ace@@
centrali@@
Could
twenty
allow@@
aciones
GBP
geschlagen
Flugzeuge
quantities
Glo@@
reductions
Lehren
complimentary
90@@
score
Privacy
kturen
tering
rose
scenery
ough
dein
Enter@@
adjusted
speich@@
ystem
zusprechen
Fif@@
mirror
Gerichtshofs
Products
expec@@
weich@@
Iranian
Premi@@
teilgenommen
abund@@
Reaktionen
Entdecken
Übersetzungs@@
executed
ground@@
survive
Easy
EU-Ebene
Empfänger
SH@@
verkauf
Legislativ@@
TER@@
antrag
iny
verträ@@
themes
Verbrau@@
indirect
lohnt
Live-@@
plac@@
Hoff@@
hop@@
Künstler@@
ARE
sibly
Schwimmbad
anticip@@
calculated
herrliche
konsul@@
breathtaking
partition
Tragödie
té
Arzt
vereinbar@@
defects
Aktion@@
vity
Fair
Fore@@
freies
verkün@@
VE
Bisher
fundamentali@@
Verkäufer
Itali@@
schützt
Entwicklungszusammenarbeit
circle
thoughts
jeweilige
reichhal@@
Above
Cathedral
womit
trademarks
badly
Var@@
bevorzu@@
porno@@
lehnen
multimedia
Lebensqualität
crip@@
Erkenntnisse
erworben
aktion
engineers
Karriere
convi@@
automated
näh@@
challenging
ökologische
Declaration
discipline
Betriebssystem
receipt
interim
real@@
delicate
ROM
tägliche
tless
schriften
fiable
nord@@
undertaking
Regul@@
Discover
gains
eco@@
ques@@
samen
Light
Communication
litten
gigen
gewinn@@
agentur
distri@@
beschrän@@
compatibility
ption
brech@@
ktivität
Pass
jet@@
fusion
Sant
reinforce
conjunction
hit@@
Hannover
deser@@
usi@@
heu@@
Vertriebs@@
Spezialisten
SY@@
Metern
vegetables
lossenen
beleu@@
mento
belonging
feels
Einschränkung
Right
departments
wenigstens
Rental
recip@@
pa
inters
Renaissance
ava
Instrumenten
beträchtliche
teter
guidance
rell
einzelner
Word
banned
eingerichteten
händler
Vin@@
respecting
einzel@@
befürworte
GF@@
ktu@@
faßt
Realisierung
Manche
gkeits@@
1970
flash
ausgewo@@
behinder@@
PDF-@@
Marbella
About
strah@@
Auslegung
Sand
analysieren
grants
GP@@
Feli@@
tackling
rant
associ@@
hte
ja@@
part-session
Überra@@
Snow@@
Natural
lingen
ernste
zeigten
spit@@
Taxi
Kohärenz
Zit@@
Lehre
popu@@
glich@@
Indonesia
ypen
Problem@@
bread
Detail@@
Zufriedenheit
migrants
semi-@@
bist
vorherige
configure
fears
Ank@@
istischer
äd@@
füh@@
grand@@
walks
Litauen
kommerzielle
hierarch@@
gebilligt
Barcelon@@
listened
preferences
Sozialdemokraten
girl
CAN@@
Erfolgs@@
returning
gene@@
Labor@@
Palestine
favor@@
2007-2013
Erkenn@@
bezogene
01.@@
fälsch@@
Under@@
lux@@
ensured
eigh@@
bra
tus
MS@@
mysq@@
inen@@
bie@@
editing
Import@@
Bilanz
ruhe
ingham
Nicht-@@
schnelles
til@@
lit
kompatibel
gesetzte
Quoten
Norway
achtung
zione
Climate
S.A.
Buffet
advoc@@
abandoned
Ron@@
Display
Lösungs@@
Herberge
Et@@
Angeles
Karten@@
Non-@@
deleg@@
filling
Classic
branches
subscri@@
Mitglieds@@
autonomy
monat@@
homepage
ürzt
torture
notwendi@@
Breit@@
continuation
dies@@
Abstand
erial
defending
thr@@
responses
.The
Küchen@@
Victoria
Parks
gn
LCD
denselben
Andreas
sto
berechtigten
nö@@
einzelstaatlichen
inbegriffen
chef
Vergnügen
characterized
enes
tliches
Analysen
embedded
Wiener
may@@
kompletten
Gewerkschaften
stritten
investigate
Kabel
Plenar@@
Konzern@@
jack@@
fur
profit@@
alla
vorherigen
failing
tiven
Orts@@
chief
zeitgenös@@
abli@@
conci@@
Standard-@@
Fahrrad@@
Rande
RES@@
Ev@@
revolution@@
klarer
lens
Montage
luggage
exceed
Kongres@@
holders
fec@@
fach
mining
zurückkehren
reformen
API
RI@@
alogue
schlage
FAQ
photography
makro@@
föder@@
aps
beseitigt
fertigen
beschei@@
hyper@@
Branchen
denti@@
Wach@@
internationales
1978
waff@@
Gru@@
Section
enced
sert
seminars
Antonio
droht
Service-@@
gewählte
digte
vergleichen
etz
wolle
public@@
ston
verwöhnen
tv
süd@@
bases
Cube
Verhaltens@@
größt@@
weißen
UM
Communist
tories
vermis@@
Studien@@
Genuss
Archiv
mals
pos
LED
ota
Autoren
rhyth@@
ausgewogenen
theat@@
Besuchern
cha@@
eingereichten
ishes
militär@@
Rak@@
derived
ausgelöst
demonstration
requiring
seg@@
lou@@
umfassen@@
air-conditioned
ners
Abenteuer
End
Spec@@
characterised
geni@@
15-@@
ungeachtet
konta@@
asp@@
auswärtige
pain@@
Rezession
Temperaturen
pedi@@
vorkommen
gged
separated
invitation
infec@@
radio@@
weigh@@
hilfen
Hügel
estimates
äußerster
pfung
gesunden
rank@@
large-scale
Dikt@@
List
halb@@
Zusammen
sorgfäl@@
Manhattan
Vertei@@
durchgeführten
Entschließungen
Lou@@
cau@@
charter
bauten
analyses
gelöscht
namens
Aff@@
spiegelt
surprising
sitzung
married
hea@@
Schatten
Bä@@
Ufer
attract
sicherheits@@
Einzelnen
pron@@
unlike
verhandeln
Taliban
Wü@@
&apos;d
ices
ganz@@
exklusiven
taught
Intel
Alpine
deinen
activate
Verzögerungen
tika
concentrated
Verstärkung
discrimin@@
beeinträchtigt
Schlei@@
radiation
wirkungen
europ@@
authorisation
Technologies
tiv
erläutert
Territ@@
Nich@@
müßte
Danube
II.
conve@@
Secretary
Diensten
tons
Ball@@
Azer@@
upcoming
Textes
cool@@
tells
gie@@
Überwachungs@@
unification
denied
wig
ähn@@
Ann@@
strive
Residen@@
zi
tam@@
pop@@
bad@@
mittag
Flüge
verhe@@
Mountain
Kais@@
bration
weitreich@@
time-@@
gewachsen
zusammenzuarbeiten
fires
spruch
Premium
venth
1967
Grafiken
Niemand
Höh@@
sämtlichen
etic
onder@@
Shanghai
mieten
mails
modes
bewähr@@
Nä@@
fris@@
isl@@
clearer
piano
effektiver
OM
optimum
founding
Liqui@@
Argu@@
Dienstag
angeblich
ahr@@
Trends
deri@@
equity
eating
Wärme@@
symp@@
novel
PPE
Vorsitzender
Berichterstattern
richti@@
geom@@
Tennis
kas@@
ständigkeit
Mä@@
abzielen
Unabhängi@@
ography
eits@@
ça
identical
survival
bian
Young
funk@@
adher@@
seits
Sir
DI
begangen
secured
realized
mengen
Tanz@@
lé@@
CO2-@@
Tee
Gesellschafts@@
atmosp@@
L.
abkommens
organ
einheit
positionen
pursuing
Massa@@
Dir
FIN@@
DL@@
Wartung
Tochter
Unternehmen@@
iti
performances
Mehrwertsteuer
überlegen
einzurichten
schol@@
Siehe
beschreiben
assumed
flav@@
ball@@
geführten
unt
Cher@@
provin@@
interaction
Verbrech@@
gefällt
Weltwirtschaft
MAR@@
railways
Radio@@
Büro@@
celebrate
nehm@@
Konstru@@
Gegenwart
Altern@@
Initiativ@@
ions
Migrations@@
portugiesischen
unterhalten
Unterdrückung
spre@@
durchsetzen
ror
practi@@
Ernährung
excellence
mming
öffent@@
Verzögerung
cheese
betrag
diensten
CI@@
continually
vernachlässi@@
ent-@@
Alpen@@
sustained
contradi@@
immense
Kommissare
Schlag@@
subsidiary
fortable
dens@@
toi@@
Zo@@
Patent
visi@@
bestimmung
fertig@@
ails
pact
notification
Wertsch@@
rejection
ank@@
Toi@@
erhö@@
niederländischen
crossing
DIE
solving
Whit@@
trails
adaptation
jects
permanently
Wochen@@
bedauern
query
Weißbuch
inischen
Broad@@
personenbezogenen
Profi@@
pin
aggressive
Conc@@
RI
inieren
verschieden@@
Zug@@
kot@@
Hierbei
bench@@
arrested
aufweisen
ison@@
längere
publicly
1975
desper@@
dive
sist@@
evolution
fel
tail
kultur
krieg@@
hinein
gekauft
qualitative
Effekte
assessments
s.com
reine
erfolgreich@@
vorsichtig
Capital
einheiten
databases
Fot@@
riesigen
doctors
fted
fet@@
idealen
Learning
towels
Luf@@
Investition
£
Betre@@
she@@
kali@@
aufwand
rolling
Erste
verstoßen
T.
Tisch@@
writer
abgesch@@
Zwangs@@
Sak@@
labels
achte
clothes
mentieren
minist@@
Konjunktur@@
bezauber@@
eira
üt@@
Fahrzeug@@
Material@@
sett@@
exklusive
Bedingung
gleicher
kontroll@@
solo
specialised
einziges
UPS
paintings
COM@@
frisch
verehrten
Aktions@@
Certi@@
Vereinigung
Ast@@
simp@@
konsoli@@
Harbour
amo
cum@@
Steu@@
Timor
Koordination
plugin
breaks
aufrechterhalten
Jugoslawien
Zauber@@
Bosnien
tro
bliche
Vergleich@@
congratulations
8,@@
Laeken
RE
reale
Absichten
stecken
Untersuchungs@@
styles
wachsen@@
abwechslungs@@
one@@
Skla@@
tigungs@@
70@@
Opfern
fis@@
Ltd.
moderate
bewertung
user-@@
Spring
stärkeren
engagiert
jet
Peru
Verhältnisse
inning
mailing
aufgehoben
Retur@@
verschiedensten
Ambi@@
Vizepräsident
humans
gend@@
Hir@@
auszuüben
Wall@@
Minimum
Enth@@
kulin@@
pets
Marktwirtschaft
noisy
rain
konfli@@
brain
rasche
fifteen
Fleisch@@
finest
Palästinenser
kennen@@
upgra@@
E-Mails
wäs@@
fizieren
schaden
ausgelegt
13.@@
löst
WA@@
mentali@@
liberalen
reiter@@
haltenen
therapie
trauri@@
U-Bahn
36@@
Temperatur
lück@@
Seever@@
installing
Arbeitsweise
gerechten
riesige
herauszu@@
inary
bid
presentations
Folglich
ritt@@
Swimmingpool
ungarischen
unlimited
Kali@@
traum
Übersch@@
æ@@
chocolate
Schnei@@
dominated
zip@@
Building
DVDs
Sign@@
magnetic
dner
unkte
Datenbanken
officer
esten
alpine
golden
Tschechischen
oth
Fro@@
unterliegt
landes
peace@@
gäbe
Luftfahrt@@
ale@@
Logo
engagi@@
Dach
herz@@
pragmati@@
disch
Superior
boy
sendet
Eintrag
Stor@@
biegen
Cham@@
erreichte
ssel
ssigen
agements
bal
Gäste@@
ökonom@@
Stahl
Geschenk
schlü@@
VO@@
sse@@
combining
versuche
Four@@
camping
beider
bricht
dged
zeuge
esslich
gesell@@
observers
Working
right-@@
digten
Hinsichtlich
Einwohnern
programmi@@
gui@@
monthly
Add
euer
.com.
Reihenfolge
geklärt
Stich@@
interview
observations
Whirlpool
Horiz@@
konstruktiven
recogn@@
epide@@
enorm
manage@@
daughter
sprachigen
refurbished
Eigentümer
stol@@
inations
ynn
degra@@
allen@@
finanziell
obtaining
consolidation
Randlage
Ess@@
streichen
hebt
coherence
wünschenswert
Kompromis@@
consulted
intern@@
Europä@@
gesellschaftliche
Anna
Granada
weis
Essen@@
196
preventive
gerichtete
permits
kehren
Frage@@
arte
1982
Credit
eva
Sorgfalt
WE@@
Brief
Regarding
zigen
wirkung
Bewegungen
regelmäßigen
sightseeing
supervisory
zukünftig
seekers
stringent
geeign@@
ministerium
Implementierung
sour@@
Panorama
Aufwand
angefangen
Initi@@
biologischen
zza
tip
warranty
effektiven
dreht
dors
masch@@
investigations
unteren
verhältnisse
orte
samer
transmitted
extrem@@
lessly
gegenseitig
coinci@@
reibung
partially
Sard@@
versetzt
Hypo@@
teenth
nützliche
Partnerschaften
stood
emin@@
jähri@@
accu@@
exploit
dition
leiter
Vent@@
quarters
Gewinner
Gelegenheiten
sincerely
Spi@@
ë@@
gefasst
Hyper@@
check@@
abolition
Hochschul@@
dre
Inhaber
Dim@@
verbrau@@
stau@@
Dynam@@
datum
multilater@@
Oc@@
Autonom@@
mitzu@@
zahlreicher
ttes
differently
rows
dangers
ambience
ermitteln
Terra@@
wäh@@
irgendeiner
infra@@
newspapers
5th
line-@@
schnitte
enthusiasm
aket
Organen
gru@@
Slowenien
gäste
Fehlen
deny
Advanced
l.
rations
contributes
sst
etric
Schre@@
ffene
Juan
gy
B.@@
pione@@
Standpunkte
klassische
verbot
schrau@@
aterie
xx
removing
lager
Coast
Vorbereitungen
Allow
1976
Planet
¤
zerti@@
isiert
notion
materialien
projekten
Menschenhandel
Besonderheiten
Blin@@
rier
ßer
Watch
eu
streit@@
Listen
regen
Clu@@
Freizei@@
gele@@
Aktien
freiem
resorts
füllt
p.@@
flotte
grüne
Beendigung
manifest@@
Geschäftsbedingungen
exploring
clarification
Universal
2000-@@
lon
wofür
üben
ure@@
onie
belgischen
kommens
Kun@@
distribut@@
Algarve
teria
Müller
Medika@@
demanded
messe
lean
Bali
00-@@
pfe
schneiden
rence
asks
invested
verdi@@
Netzes
alize
peak
Ausnahmere@@
Division
ürz@@
Zahlreiche
stätte
schaftlichen
Charak@@
stakeholders
airo
ruhen
Flughaf@@
Meanwhile
wan
Buddh@@
geho@@
Hop@@
begrenzten
begeistert
IE
Herrschaft
gesunde
template
Präsidium
formul@@
participated
örung
Philipp@@
shire
Möchten
ht@@
extern@@
adequately
generi@@
prim@@
murder
Ereignissen
glu@@
verschoben
villas
laboratory
orten
tisches
inher@@
backing
Kup@@
anspruchs@@
Nature
Lit@@
announ@@
atorium
Erleb@@
Kongress
Pak@@
iets
group@@
vielfalt
Perspektiven
announcement
Plu@@
bezahl@@
Tom
EGF
zerstör@@
Mun@@
cker@@
steckt
ss-@@
Chr.
klausel
RAM
landscapes
Finanzmärkte
E-Mail-@@
steigenden
äufe
salt
Jahresbericht
besetzt
Zut@@
Infe@@
Indem
ultra@@
gross@@
Baroness
friedlichen
fang@@
Ric@@
mounted
Heritage
Therap@@
Siena
Soft
hosting
Beachten
wake
schiff
Deine
ha-@@
enswerte
errichten
islam@@
potenzi@@
vielfältige
use@@
linguistic
aktivitäten
glück@@
Gesetzes
Abfälle
refined
CP
SIS
Wetter@@
harm@@
unanimous
as-@@
Lodge
Medizin@@
gebrochen
tü@@
insp@@
consisting
implies
schrieben
lay@@
ues
Caribbean
propri@@
Rats@@
spell
zumal
distribute
haven
nähe
Tatsachen
nehmern
Tot@@
amen@@
kill
open@@
dogs
summary
Empfän@@
enemy
wiederhol@@
Que@@
Hill
Arbeiter
tzei@@
Stattdessen
spiritual
igkeiten
independently
credi@@
bereitzustellen
Ursprung
Lebanon
Internetseite
aufeinander
erle@@
Fitness
schuldig
Freih@@
Bosni@@
Abgesehen
short@@
überwiegend
sinn
sons
tab
tening
advent@@
nic@@
währ@@
knowing
parlamentarische
weekly
emissionen
Befehl
schwerer
idealer
prominent
expor@@
Stein
Unterhaltungs@@
wohn@@
MD@@
Ausstellungen
Einheiten
ety
Ankündigung
minds
gehörigkeit
Stro@@
Trag@@
jud@@
verbindlich
intergovernmental
grew
Outlook
europä@@
verleiht
schlechter
landwirtschaftliche
erlau@@
analysiert
Bonus
Zwecken
Medical
Informationsgesellschaft
ateg@@
restoration
Armen
accused
Betrugs@@
Prü@@
stro
influenced
deutscher
vention@@
Avenue
motivated
klares
Hz
suddenly
Kopie
196@@
Zubehör
Limited
beitreten
Binnenmarkts
Plugin
profiles
resumed
harte
vili@@
stabilität
gebühr
nachvoll@@
Sep@@
hide
finanzieller
bö@@
circuit
Uhr@@
unlikely
ALE
Aufträge
Grundfreiheiten
Mid@@
delayed
strafrech@@
sim@@
Albanien
korrekte
Zugangs
bands
verschieben
Gil@@
Aufruf
Konflikts
Converter
Vorsitzende
Treiber
furthermore
practic@@
Ear@@
Gleichbehandlung
Manchmal
SV@@
Jackson
discovery
Gitar@@
agieren
Moskau
endo
schluss
Leh@@
lower@@
gear
Tipps
dedic@@
bereitstellen
Vermeidung
Tunisia
Moldova
vermu@@
Semin@@
Hilfen
vens
verbesser@@
competitors
Effektivität
accountability
prüfung
ältesten
bedingt
ul
angehören
dom
touched
verankert
sher
hazardous
lief
trock@@
stärkt
Dau@@
explains
verständ@@
anded
reiten
Kathedrale
verhandlungen
repa@@
struck
Schwan@@
ouring
Zulassung
enzi@@
benachtei@@
4th
Bad@@
musik
inal
evil
vul@@
show@@
Autor@@
vre
zon
translate
Portu@@
ATION
Johannesburg
Bron@@
hairdryer
vorne
explanations
securities
safely
ï@@
Supp@@
ktur@@
vorangegangenen
Hierzu
Def@@
Gegenstände
Cav@@
detailli@@
consul@@
vorbe@@
Elementen
Bildschir@@
ssel@@
isolation
Excel
clin@@
Clo@@
afterwards
stattung
mathemati@@
Variante
verfüg@@
indire@@
dentally
häusern
Maison
comforts
Key
Ganzes
Vorwand
Ruh@@
niedriger
bathing
Water@@
Ausgleich
ceram@@
Store
Flug
Frontex
Russlands
weitergegeben
commonly
inser@@
stabile
Rahmens
Gate
blocked
belegt
aden@@
nau@@
verliert
Entstehung
Grande
Provin@@
zerstören
exo@@
Parlamenten
Beweise
Passagi@@
profound
zuverlässig
Blick@@
orian
Voraus
aga
utility
Integrität
vine
justification
gases
trademark
dazu@@
carrier
genauen
besticht
dauerhafte
interfaces
graphical
hinzuweisen
FS
sens@@
breites
harv@@
wenigsten
kirche
nördlichen
php
halts@@
racht
verwand@@
vente
cam
lot@@
gered
HS
dbar
lische
rachte
1968
anen
ese@@
korrigieren
DVD-@@
VIP
in-depth
capacities
yellow
lap@@
deriv@@
ströme
strit@@
mins
ilt
promotes
gter
is-@@
waves
prev@@
economics
dging
Junior
OL
Kommissionsvorschlag
untereinander
explicit
nov@@
athle@@
Wachstums
Pierre
Premier
Flotte
bemerken
SP
CEO
auseinander
rus
luxuriöse
selbe
künstler@@
Papier@@
impres@@
washing
Ris@@
ocean
weapon
Continu@@
prompt
Christen
Eigentums@@
Cold
Libya
ignorieren
män@@
Halbinsel
cting
tiny
mittlung
leitet
Fortschrit@@
niedrig
Dringlichkeit
Naz@@
wichti@@
ric
Maus@@
skep@@
wendungen
firmen
zutiefst
Regimes
authentic@@
Berater
wozu
clou@@
Ero@@
Protokol@@
Telekommunikations@@
constraints
beglei@@
Acht
W.
oot
Rele@@
extends
rescue
Spei@@
zulässig
startet
USB-@@
entstan@@
unprecedented
mos
alive
anxi@@
Fab@@
Bür@@
elson
Exc@@
atories
Esp@@
stom@@
Kaz@@
modest
TNG
PN@@
begreifen
Sekre@@
encounter
Ré@@
assungs@@
decentrali@@
intensiven
eligible
Zielsetzung
Camp
Diagno@@
ausgewogene
erober@@
ICH@@
ft-@@
scep@@
nobyl
Inneres
zugän@@
ians
iken
zeitlich
recover
host@@
Trennung
tausende
ation-@@
turen
satzes
Marketing@@
Vorredner
strö@@
Neph@@
menü
stimulate
geltend
officers
sexuelle
Alpha
consci@@
tener
Cour@@
aves
excess
geräum@@
commission
backed
FOR@@
170
Ira@@
durchgesetzt
disman@@
roles
übersetzt
entfer@@
hectares
Fuss
ug@@
nen@@
gültigen
Econom@@
circu@@
einzigartig
quer
Camping
ellen@@
bir@@
unverbin@@
Reak@@
Journ@@
geschwindigkeit
Mili@@
warmen
Provider
embar@@
-Spe@@
Mitwirkung
Energieversorgung
verknüpft
scienti@@
ess-@@
ense
Armuts@@
cat
tradi@@
straßen
profitable
Written
interessen
infrastructures
investing
Vorbe@@
alling
zukunfts@@
DEN
Kühlschrank
fristig
glücklich
lows
Oslo
scra@@
gebenen
Ratspräsidenten
suspension
bew@@
3-star
mehrerer
Freien
inge
stunden
genügt
thal@@
e.V.
orn
ost@@
besseres
jährliche
earned
wurfs
u.@@
fai@@
Spam@@
oes
Frieden@@
rot
proje@@
Kreis
deta@@
duction
tight
rum@@
Zugleich
Gebrau@@
rivers
you@@
Estonia
Schmu@@
alties
vorhandene
Dich
Ausgang
acking
flan@@
Erreichen
bears
220
reconciliation
Gl@@
Klar@@
Head
destabili@@
diesmal
fruits
wechselt
Luxus@@
risen
Unserer
Newspapers
PC-@@
Spielraum
bungs@@
Bill
arriving
allo@@
17.@@
Eisen@@
Mitentscheidungs@@
filters
Petitions@@
veranstaltungen
employee
confron@@
Singapore
schungen
Domini@@
reviewed
Substanzen
seminar
Sales
eption
Play
audit
giert
hopefully
Loc@@
Golfplatz
vorrangig
Scheitern
Ern@@
PRO
sympath@@
jähriger
Jak@@
Ursprungs@@
gathered
wire
Tagungs@@
weren

transformed
Statistik
perc@@
mou@@
Ton
Dolmet@@
neueste
veter@@
Simbabwe
anc@@
mehrmals
Sämtliche
await
damaging
einzustellen
chemischen
simplified
Tendenz
getestet
0.00
reaches
Palazzo
panels
Neuigkeiten
speaks
ausgearbeitet
realised
friedliche
celebrated
grave
vorschlägt
capability
feelings
lägen
Gelände
freundlicher
müsse
striking
Zur@@
sele@@
analo@@
check-in
tätigkeit
Palästina
iere
proble@@
Wechsel
Kluft
impetus
jahres@@
indigenous
brut@@
Engine
einla@@
isc@@
four-@@
Genf
Meer@@
verbieten
Fristen
Kaiser
tur
bedeutend
chnungen
Beobachter
negle@@
fits
ATA
éri@@
elabor@@
ausgebaut
systematisch
Christ
Kanal
anstelle
gebrau@@
render
Leidenschaft
optimalen
ellem
junger
Deli@@
gesun@@
Ausfahrt
expan@@
Veget@@
schlimmer
trig@@
gipfel
libraries
Schwimm@@
gebenden
co-operation
einmalige
fluss
boundaries
Hur@@
divide
conditional
Relations
maß
veaus
berg@@
ausgestatteten
ECHO
Roll@@
ographic
Amtszeit
ermaßen
consist
erc@@
wski
Republi@@
tunnel
lands@@
ppen@@
currencies
anmelden
Freie
luck
erhol@@
menus
perman@@
enjoyable
rent@@
diox@@
conviction
dä@@
Sant@@
Auseinandersetzung
Rather
essions
Spuren
formula
Gew@@
Eurex
shoes
Funktions@@
ion@@
iss@@
Watson
incident
schwedische
cap
align@@
Leid
Technologi@@
dam
ausbildung
abstained
umgekehrt
Garda
übrig
Weihnachts@@
Ersatz
Thai
outlined
culinary
Segel@@
bereitschaft
zauber@@
Produk@@
Gerne
avoiding
ION
D.@@
rägern
Zugangs@@
fahrzeugen
ambitions
dus
umfassendes
gänger
inia
Mühe
cultiv@@
Pfei@@
Ras@@
vessel
enting
Dy@@
processor
Benutzern
beat
ernden
Festi@@
solu@@
isn
Stabilitäts-
fehlende
reproduction
retirement
Erleben
fossi@@
blau@@
Reb@@
Einfluß
twelve
bark@@
resistant
aken
emandem
lässi@@
ühle
5.000
eness
harmonised
Einwände
Berechnung
za@@
plying
arians
kos
begeist@@
Disabled
leidung
Himm@@
gewiss
Video-@@
Anhänger
südlich
incorrect
beträ@@
weisungen
zustand
Än@@
Barnier
districts
on-line
part@@
brutal
OG@@
berühm@@
türkische
Frank
Event@@
gaming
flüge
ecke
complement
Feri@@
Wachstumsp@@
Cubase
Verbindungs@@
bat
remo@@
indispensable
Chicago
Heiligen
hist@@
Speicher
lish
beantragt
tained
alising
Infrastrukturen
Gemeinsam
Metho@@
vicinity
befu@@
luxuri@@
stunde
142
talent
excee@@
gerichteten
gelang
Disk
usses
mündliche
Mehrere
verband
HR
fic
18-@@
Feuer
anstreben
atte
distinguished
arity
activ@@
detection
Sarkozy
witness
somewhere
titles
thos
Simply
Bremen
ferenzen
aca
Linux-@@
Zäh@@
schaf@@
gnis@@
studios
Partei@@
wahrnehmen
awar@@
Christians
Komponente
reasonably
Shar@@
untergraben
chal@@
zö@@
mond
enfor@@
cooling
besides
Lev@@
trü@@
cements
systematically
dauerhaft
wandern
geschätzt
Kron@@
wissenschaften
Monitoring
Ring
aspe@@
Swoboda
Versuch@@
entities
anbietet
Fat@@
Spen@@
gehend
ologically
Wör@@
finishing
conscious
TA@@
unvergesslichen
ular@@
Annual
Famili@@
lag@@
Behinderungen
Verkehrsmittel
Stütz@@
atur
Thermal@@
recy@@
Besteller
cep@@
Ernennung
beantragen
anter
Versand
themati@@
unmittelbaren
advocate
Mount
Solange
Euror@@
ordnen
gründlich
Canaria
disagree
appreciation
plas@@
KOM
Stellenwert
Moderne
o.@@
Informations-
Vermarktung
Boh@@
robots
abu@@
calculation
lion
acher
lektu@@
Eintritt
starker
knapp@@
einbringen
alliance
einsei@@
Zuerst
strategien
ku
ne-@@
prochen
quiries
Univer@@
Produktion@@
Bell@@
Leonardo
erw@@
wedding
wesens
winners
electronics
quantitative
Gemüse
rul@@
org
gericht
Blut
Verein
Age
limitations
Erika
Mugabe
interpreted
bey
Bestand@@
complic@@
verwirklicht
Grupp@@
Geschlechter
ktives
Doppelbett
spezif@@
therap@@
Schiffs@@
tatsächliche
thor@@
herunter
TU@@
Ultra@@
reinforced
tness
complaint
begab
Flas@@
fed
Demon@@
blü@@
reader
Isol@@
thin@@
Kunststoff@@
maker
Vorbild
eingeben
koordinieren
sozusagen
Reno@@
Schiffen
malerischen
ror@@
EX
heb@@
ink@@
Schluß
dänischen
Verantwortungs@@
Jam@@
essive
netze
Foren
PPE-DE-Fraktion
Nachteil
lli@@
verstärkten
Transa@@
existed
Minderheiten@@
Abwicklung
benötigten
Supervisory
Anmerkung
Infos
pipeline
separation
schmerz@@
outer
dele@@
ot-@@
essed
bia
Leistungsfähigkeit
master@@
Män@@
printer
Yu@@
Geschle@@
NG@@
SSL
ausführliche
sweet
Tyrol
Workshops
elegance
featured
wishing
gefolgt
pläne
Head@@
lays
leichten
Child
rs
Za@@
Visual
nowadays
Gastfreundschaft
counting
vernünftigen
emotional
Monta@@
Sternen@@
allies
Sicherheits-
mad
Cross
attempted
vermehr@@
Welthandelsorganisation
Konflikten
admission
dierte
kapital
Slo@@
cycling
entworfen
abuses
Marine
griechische
gesorgt
prevents
faktor
scenario
indirekt
Tunesien
orious
Weltbank
Spanisch
jec@@
PER@@
Kommand@@
Eurostat
bestä@@
unterstreicht
bürger@@
Deut@@
Automobilindustrie
Umsatz
schön@@
ielle
vement
Buil@@
corri@@
tary
Hintergrund@@
lum@@
Frank@@
genetically
lingu@@
inevitable
ölle
Army
TC
bestellt
ji@@
endan@@
Sowjetunion
integr@@
Deluxe
Sci@@
21.@@
urban@@
gemü@@
Begriffe
orient@@
oth@@
sendung
beha@@
laying
Chechnya
kommission
1973
Dire@@
Unlike
SD
maßgeb@@
Dafürhalten
té@@
größtenteils
Prestige
Statut
stün@@
shaushalt
zent
exquisite
Ord@@
Defizite
sames
Nutzungs@@
subscription
woods
acro@@
bas
Magic
esischen
mend
zwangsläufig
Nichtregierungsorganisationen
Terrace
ä
distributors
sharp
Between
Sensibili@@
kompetenz
16th
Abweich@@
Fut@@
Tap@@
belegen
Vogel@@
Gibraltar
vereinfacht
queries
urity
tensions
joy
Entfer@@
fischen
decoration
Gun@@
vertei@@
rice
stream@@
Photo
Rezep@@
loud
subjected
Indikatoren
verteilen
cargo
ständiges
bloo@@
atz@@
Franz
unterhalb
ppy
zeitraum
lichung
Souven@@
Focus
US-Dollar
G20
Smith
Rechtssicherheit
Suchen
gesetzliche
keln
ames
Menü@@
advances
besagt
wunderbare
Mittel-
Kamp@@
más
ements
globalization
wickelt
benachrichtigt
Being
adjustments
Privi@@
Schwier@@
colonial
abgehalten
enco@@
lifestyle
inter-@@
Fertigung
Rechtsan@@
MAN@@
institutionen
arran@@
blen@@
inspiration
deutlicher
anno@@
passenden
sensitivity
shareholders
fair@@
Basic
Nahrungsmittel
retri@@
tram
endete
extrac@@
algorith@@
22@@
angel@@
inevitably
PSE-Fraktion
acken
Zent@@
bevor@@
Jose@@
fabri@@
entschei@@
furnishings
up-@@
IGC
Industriel@@
schrieb
jum@@
ber-@@
horizont@@
Devisen@@
Nothing
Lad@@
befür@@
bewirkt
anzugehen
asy
ssige
räder
uten
nennt
door@@
ruled
supran@@
notic@@
Touristen@@
pig@@
autonom@@
aders
accommodations
fundamentally
onischen
prints
japanischen
angeneh@@
Treibhausgas@@
killing
neys
selecting
Fischer@@
dictatorship
lip
fasst
häufiger
saal
restrictive
Pilot@@
Milit@@
cus@@
eable
125
arises
authenti@@
tauschen
Adriatic
yn
brother
Klaus
admi@@
visas
stufen
Entschädigung
endless
distan@@
emb@@
Annäherung
maintains
Duis@@
exceptionally
frisch@@
arab@@
bekanntesten
colon@@
industrielle
saison
ausgeübt
Ny@@
socially
stehe
vorhaben
saubere
Ebenfalls
verm@@
electro@@
ruption
kilometers
zier@@
Nie@@
Shopping
fache
drehen
bewe@@
jan
Fün@@
.....
Mozilla
erschein@@
HR@@
designated
schwerwie@@
Dé@@
exten@@
resolving
Stellungnahmen
Territorium
Internetseiten
countless
inequality
hunger
hinzuzufügen
mid
stahl
taire
verbin@@
Reich@@
openly
kurz@@
Arbeitskräfte
packen
erweiterte
konz@@
Finanziellen
sac@@
gezielt
Ress@@
Yor@@
tremendous
ignor@@
Minder@@
A5-00@@
Sky
liv@@
jung@@
Schaf@@
cha
Anders
brin@@
ktieren
dust
1974
on-site
breeding
Alkohol
lav@@
IND
Argentinien
path@@
levard
kauf@@
lawyers
ints
Entschließungsanträge
Veranstaltungs@@
schulen
Gesetzen
personenbezo@@
Legitimität
Nachbarschaftspolitik
younger
Stabili@@
Spit@@
ßte
4-Sterne-Hotel
lern@@
kunst
authori@@
Beobach@@
Om@@
gesetzlich
fähiger
stoppen
runden
aktiver
benutzer@@
Durchschnitt
ie-@@
Stränden
16.@@
grundlage
nachzudenken
Isch@@
invoice
schieben
ow
Juli@@
floo@@
raff@@
qualities
Kommentar
schaftliche
Applikationen
ende@@
allmählich
stating
bereichs
vineyards
führender
Hitler
Summer
adverse
test@@
Forst@@
Umstrukturierung
wus@@
Allgemeine
linking
ware-@@
höhe
vigil@@
recover@@
envisaged
verschwinden
ule
gradual
climbing
Säule
Athens
procedural
legisl@@
Arm@@
Insofern
Übertrag@@
aluminium
artig
chil@@
rang
out-@@
Jahrzehnte
Forest
Petitions
tment
tracking
unanimity
Euros
conce@@
Recy@@
assign@@
Aufrechterhaltung
pride
mono@@
roughly
ventions@@
Reichtum
aboli@@
Sozialpolitik
palace
reicher
Out
otel
fließen
unzureich@@
criminals
boarding
aya
class@@
liquid
Zins@@
Hub@@
Jazz
urs@@
rift
Job
dauerhaften
attach
Lum@@
begrenz@@
beeinträchtigen
Prix
oxi@@
Abu
seaside
pointing
rites
scenes
krie@@
beding@@
Cardassi@@
förmi@@
sieb@@
shr@@
stechnologie
Offizi@@
quet
Auswahl@@
Vorbehalte
criterion
first-@@
avy
erinnen
Haushaltsjahr
Later
Relax
ranges
Ernst
ada@@
albeit
zufriedenstell@@
Fertig@@
Sli@@
Castell@@
wich
1983
igrant
Materials
großartige
invites
DM@@
Phil@@
Carlos
fertili@@
TEC@@
amtierende
lying
decor
außergewöhnliche
audiovisu@@
free-@@
ois
Cultural
revol@@
ersuchen
Much
ritt
gemeinschaftliche
single-@@
dryer
zungen
refugee
designers
Pie@@
scrutiny
Große
Ansätze
Gefangenen
Digit@@
beglückwünsche
Wahrscheinlichkeit
abends
fundament@@
supplement
Spr@@
Verona
imperative
provi@@
Queen
tlichkeit
mountain@@
Stadtteil
beliebten
mache
globally
layers
attempting
moon
az
la-@@
Reh@@
Signale
Anreiz
Wohlbefinden
couples
ageing
inhab@@
tagon@@
vorbereiten
schwarzen
advised
abzielt
exclude
voices
32@@
ually
koordiniert
Kernenergie
crystal
Aller@@
servative
vorausgesetzt
cca
stroll
beliebt
defici@@
expi@@
Libanon
nutzung
terraces
drücke
inne
fulness
entrepreneurs
emble
Commander
dot@@
Ärzte
REACH
Zustellbetten
symbols
effizi@@
perfec@@
reib@@
cris@@
cros@@
nick@@
delivering
Aktiv@@
Bere@@
enrich@@
interference
quer@@
weitem
high-speed
verbreiten
Architekten
Spra@@
Bluetooth
wende
1500
NOT
hn
dringen
teach
cigare@@
Vot@@
beautifully
donors
integrating
etta
esen@@
Wiki@@
carries
Termine
Fall@@
cycles
bag@@
refriger@@
Criminal
puri@@
verglichen
erwar@@
12-@@
fortzusetzen
sincere
Neu
Kompromisse
Redezeit
Gesamtheit
geschätz@@
container
aters
Busse
rigorous
rahmens
Dienstes
tolle
fikationen
gründet
bikes
Repar@@
compens@@
kin
betrug
-in-@@
Mou@@
treibt
Oracle
horses
technically
Augenmerk
examining
1981
Fertigungs@@
auftritt
hung@@
dener
Mountain@@
tico
ogra@@
Them@@
Unless
Large
Soli@@
Kommunikation@@
akten
obo@@
booth
Fili@@
Norwegen
1977
NOR@@
Basis@@
qm
FF@@
licensed
ruppen
bekräftigen
Top-@@
gischen
kenntnisse
Dörfer
fif@@
execute
cils
verbindliche
excuse
classi@@
büros
anfangen
Nationalpark
Days
symbolic
Custom@@
präz@@
Sofern
langjährige
Intel@@
Finanz-
festhalten
Gefän@@
Any@@
enthal@@
träglich
que@@
Konkurren@@
fabric
Commun@@
Völkern
abzulehnen
Prac@@
gi
leute
Controller
entwickel@@
Redebei@@
Kredite
bedürfen
reciproc@@
skill
zweimal
Zentren
genheit
Hunger
erzi@@
carriers
kamera
Inanspruchnahme
overnight
Publik@@
scop@@
schreck@@
Flach@@
Tren@@
lans
determining
ppt
ön
Enter
Flüchtlings@@
Schlu@@
euro@@
Treib@@
Landwirten
ebo@@
Anzeichen
ventionen
Zeile
cross@@
sont
15th
loy@@
Entertainment
BAS@@
packed
lichten
legislativen
pur
Griff
mixture
15.@@
Aufsicht
cost-@@
enten@@
accessed
stit@@
FS@@
religiöse
Train@@
Starfleet
Entschei@@
Reden
Gross@@
Ramblas
engagieren
Application
Partnerschafts@@
variables
robu@@
dimin@@
vorzuschlagen
Channel
stärke
ärm@@
votre
Whilst
Rimini
olen
character@@
luft@@
dahingehend
Anpassungen
bemerkt
tie
Durchführungs@@
bezogenen
HI@@
Sym@@
Jur@@
Schlußfolgerungen
decrease
racing
statute
Lobby@@
Clear@@
enburg
five-@@
charman@@
Kosme@@
Gegenwärtig
funktionier@@
arien
Richtigkeit
gesendet
ausgedrückt
billigen
Electri@@
abili@@
mount
chester
fat
pflan@@
fes@@
wuchs
Gesetzgebungs@@
Statute
leg
stitution
Upon
ausgezeichn@@
rain@@
vacuum
aal
Det@@
bün@@
yp
arische
Copy@@
clinical
Especially
hinterlassen
brie@@
Type
Indonesien
Print
fici@@
fünfzehn
pin@@
Refle@@
mn@@
strom
impro@@
Aufgaben@@
Lanka
strand
verträge
ots
erreichten
knowled@@
NT
geschmackvoll
rungen
resol@@
formu@@
entity
vorzubereiten
Gef@@
Block
Round
customized
theast
downloads
Libyen
regelmäßige
Anwendungsbereich
Verpackung
sser
Kühl@@
Wäscheservice
City@@
mineral
betreibt
generating
gerer
kämpft
Obst
Operationen
marriage
Naturkatastrophen
preises
beweist
consultations
non-governmental
christ@@
shooting
Vec@@
xis@@
indirectly
household
Verz@@
upload
silent
128
raums
exploited
sung
dress
gehörte
müh@@
etzt
Aussichten
Impulse
Landschaften
Seh@@
renovierte
tragenen
distant
Ansprechpartner
stischer
Let@@
Hist@@
Mailand
persönlicher
jer@@
terror
Frattini
Oxford
endeavour
patch
placement
ASA
buff@@
deplo@@
sachen
Grafik@@
Dör@@
dreams
abgeschafft
shell
samples
Persön@@
Ostsee
DS9
rechnung
rarely
abzuschließen
Airways
erfor@@
shine
compromises
disastrous
stungen
smu@@
utter
gleichzei@@
cost@@
ansä@@
fehler
dacht
amtierenden
ktiert
passi@@
le-Distribution
islamischen
instability
wiederhole
restra@@
behindert
unum@@
Zeitungen
transatlantischen
ateau
bereitgestellten
bugs
verschlüssel@@
discretion
Veter@@
ckers
Direk@@
quick@@
bekämpft
Räumen
Klick
opponents
Tokyo
kenntnis
Beton@@
1990s
wished
Stil@@
totalit@@
automatischen
CC@@
panorama
Redu@@
Railway
schulden
judges
Psych@@
grid
partement
gefühl
schle@@
worker
2014
validity
fungs@@
disciplinary
Save
Facebook
Vielmehr
medizin@@
nette
hausen
buttons
beruf@@
coach
keits@@
-European
gewann
geholt
Eleganz
Users
Geträn@@
Bed@@
Guar@@
exam@@
veröffentlichten
verify
spr@@
beam@@
spür@@
ummer
eingang
ity-@@
Arri@@
text@@
Milch
abgestimm@@
Einblick
delivers
Orientierung
Passagiere
unkt
Einladung
GS@@
sympathy
Sitzungsperiode
dago@@
durchschnittlich
leiste
Kompromiss@@
coins
Kalender
Teu@@
ziehung
heres
Juden
ò
safeguarding
zügi@@
deadlines
Sicherheitsrat
besetz@@
herein
RT@@
Som@@
Verbrauch
17th
Projektes
tchen
dow
Theater@@
Wurzeln
bels
Vergü@@
Einbindung
befreien
erleb@@
Ps
Kreatur
refra@@
hybri@@
rd
Schal@@
Sicht@@
stanz
chances
workplace
Visum@@
defense
comfortably
Erfin@@
Gültigkeit
Erstellen
mittel-
sex@@
it-@@
aku@@
Vig@@
Sortiment
Heim@@
frische
trans-European
Gleichheit
zugreifen
000@@
massi@@
struction
german
Geo@@
onte
Rep@@
vie
Sett@@
tron@@
schaff@@
Progno@@
Panel
delegations
Simul@@
bedient
energie
neh@@
HOTEL
sail@@
Somm@@
deeper
trieb
In-@@
cinema
stir@@
mangelnde
Auftraggeber
holung
wissenschaft@@
Zellen
SU@@
og
proliferation
heil@@
reactions
geseh@@
assessed
tournament
wachen
unent@@
undes@@
Säu@@
Azur
Gefähr@@
Krieg@@
Pharma@@
eling
ßes
Gesetz@@
Flüchtlingen
zuverlässige
coalition
aufre@@
Sehen
minibar
Chef
moralische
Beförderung
matches
gelag@@
herself
Arbeitslosen@@
keiten
locally
Solarium
preference
accommod@@
behold
R.
Religi@@
Maj@@
circum@@
missible
inwieweit
concludes
scripts
Wahrnehmung
Direkt
yl
territori@@
b-@@
traditionell
festivals
Schottland
Preis-Leistungs@@
contest
expl@@
zusammenzu@@
bevölkerung
starb
Ferienhaus
volu@@
geordneten
immerhin
sav@@
Herstellern
utions
repression
static
Immunität
schaftlich
erkenn@@
Partners
schätzung
EK@@
Festung
tana
Cot@@
walt
Looking
Cannes
Kondi@@
ño
threatening
margin
Teilnehmern
ellers
universe
twenty-@@
proportionate
letztes
ger-@@
english
einsetzt
Transpar@@
Selb@@
admitted
appearing
engagement
definitions
protective
hochwer@@
insert
etten@@
kopieren
Dry
mic
....@@
iker
beachtet
thaf@@
lok@@
surgery
passive
verlängert
estro
esp@@
energie@@
paragraphs
Lob@@
Crus@@
Romanian
beschä@@
author@@
oration
foster
izes
Dubai
erfassen
listet
Neither
oom
Holy
encomp@@
abschließen
Fäl@@
2,5
nutri@@
Straß@@
erei@@
Gegebenheiten
Again
Koso@@
Beitrittsverhandlungen
länen
aan
correspon@@
stairs
I.@@
vermieten
1.2
gen-@@
transported
Vertrieb@@
organs
Krimin@@
diesbezüglichen
Gefan@@
ox@@
reser@@
Direct
Downloads
Mauer
Friedrich@@
Domain
Kameras
Kil@@
adet
XX@@
höchst@@
Künstlern
ertem
collections
ty-@@
porte
Updat@@
Future
29@@
configured
modular
workforce
cular
parall@@
geschlossene
Artikels
solidar@@
Zinsen
argued
shock
ferry
Wikitravel-Benutzer
esco
geräumigen
webe
anyway
op-@@
unterstrichen
Shop@@
Vorstand
deckung
Möbel
Lav@@
Hoheits@@
congratulating
Cohesion
FO@@
bedauer@@
Gewährung
das@@
astic
Gleichwohl
Umgeb@@
zügen
Christdemokraten
Bier
Fahrzeugen
strecke
atemberau@@
Review
Jews
asts
modelle
Sax@@
formali@@
retro@@
schlä@@
einzuleiten
intel@@
standard@@
stieg@@
Millenni@@
tera
zeile
Pfer@@
itz
Muni@@
serklärung
Anyone
tonight
geschütz@@
Schalt@@
ING@@
deciding
Generalsekretär
Medina
erkennbar
therapeu@@
Bern
genutz@@
partner@@
chtige
certificates
intim@@
dity
wettbewer@@
hir
ños
year-old
ehl
credits
norm@@
energies
vereinbaren
Mechan@@
Früchte
securing
tiefen
Geschen@@
echt
gratuliere
WiFi
gemütlich
noti@@
compan@@
lichere
besitz@@
asting
dra
guest@@
Henry
Folge@@
nearest
Maßstab
stöß@@
SilverFast
Mary
trail
Beträge
E.
angemessener
wanting
fangs@@
educ@@
harten
Rock@@
lend
eign@@
istan
Tourist
ernannt
länge
emphasize
Chat
Hav@@
Außengrenzen
grundlegend
downlo@@
isse@@
verordnung
alternativen
en-suite
insight
Florida
identifizieren
modernisation
Co.
Deutsch@@
age@@
unvermei@@
Autonomie
gather
optionen
Besichti@@
ometer
tible
Störungen
gemachten
Guinea
drit@@
evalu@@
modus
stie@@
Breite
.-
simil@@
Korean
tox@@
audiovisual
mend@@
Europäisches
Epo@@
MT@@
Muslims
beside
Spann@@
gun@@
modification
cotton
vorberei@@
Auth@@
bestraft
scape
Kleidung
Quer@@
Punta
Messenger
beratung
Ziels
fehl
Präsidentschafts@@
awards
Entwicklungspolitik
Alkohol@@
lifts
aggre@@
vou@@
erschienen
figu@@
was@@
yal
PA@@
antiken
Respon@@
friend@@
Statt
endeav@@
gründe
proves
far-reaching
windigkeits@@
gau@@
Unternehmer@@
Sequ@@
ismo
musicians
Wunder
toll
schaftlicher
Wolfgang
Ticket@@
Etagen
Literatur
Karls@@
Später
kus
terly
Depending
keyboard
gebucht
cattle
Andr@@
unilateral
att
anderswo
dis
poss@@
Environmental
maßgeschnei@@
chamber
ICE
igte
höh@@
Demokratisierung
kore@@
hof@@
Spielern
civilians
optimieren
pillars
zurückkommen
gical
herausge@@
Banglades@@
eite
IFA
Baj@@
wertvollen
autonomous
setzten
aro
healing
aman@@
nern
bili@@
Lizenzen
Ganze
zunehmen@@
stabilen
Cru@@
1969
laufende
environ@@
ila
offset
routine
Geburt
Lissabon-@@
Annex
Interview
athon
thereof
listing
reveal
dle
Collection
off-@@
Gift
Heb@@
painted
Hoffnungen
Hilton
BSE-@@
Chaos
teres
Begegn@@
Mitarbeiter@@
Bundesrepublik
führend
Netzwerke
mild
Stimmung
ades
Etik@@
newest
ckte
Posselt
incomes
gefügt
rative
doppel@@
regelungen
chip
spieler
Gletsch@@
Gemeinschaftsrecht
ingo
kanz@@
terrain
Want
confidentiality
trages
eman@@
konkre@@
preservation
bildungen
Freedom
asiatischen
Kohäsion
cup
Anzeigen
honest@@
gig
Angeboten
DJ
Gesundheitswesen
tique
Potential
Erneuerung
Dienststellen
WHO
Impf@@
metro@@
Feder@@
gelände
Label
städtischen
Local
Navigation
formally
Artikeln
terrasse
geschützten
guilty
eme@@
gli
convincing
DO
abgel@@
bedeutendsten
exper@@
Meinungs@@
Kandi@@
innocent
Katastrophen@@
Mountains
Darauf
Latvia
voranzutreiben
uner
Gä@@
episode
surplus
Gepäck
Diktatur
latt
SQL-@@
Nuklear@@
ento
worauf
kle
categ@@
englische
globe
serial
dable
hearts
remedy
angeführt
grenzt
übertrag@@
implic@@
founder
WW@@
blockiert
Wert@@
cover@@
strebt
berau@@
gehand@@
ALL
lah
Übermittlung
nal
Balkan@@
buyer
F.
wirksam@@
TION
immunity
promp@@
studying
ult
commands
worried
Nob@@
boys
schwäch@@
bicycle
inviting
monopoly
Ungleichheiten
turm
tling
Friedrich
Zealand
od
positives
Objective
Windows-@@
Schienen@@
genz
Häufi@@
diversen
Affili@@
Sozialisten
Viol@@
tariff
aufhören
Statisti@@
dynamischen
Mensch@@
bearbeitung
wache
Soci@@
law@@
tseite
Adam
Malaga
safer
eux
Campingplatz
wertes
transpar@@
Jack@@
Wu@@
toren
gins
ideological
revenues
unified
gestrichen
abandon
witn@@
elite
affir@@
schaft@@
thinks
cling
acht@@
eventuelle
Meinungsäußerung
personality
Mercosur
geräumige
aufweist
evaluated
standardis@@
distinct
ò@@
John@@
Eff@@
dered
Beschaff@@
Moh@@
Proc@@
diesel
deter
segments
Flüssi@@
Nachteile
Seattle
pine
usa
bigen
versetzen
abteilung
classification
forderungen
transfer@@
europa@@
fant@@
opou@@
Help
gebnisse
erschien
frühere
Stim@@
etings
Schwerpunkte
lierungen
gebo@@
volumen
niedrige
bekanntlich
Long
Shuttle
configu@@
wirksamer
stechnologien
indications
wertet
lassen@@
alog
bücher
zivilen
Heu@@
strahlung
freiwillig
NE
chart
lieferung
medicinal
Caf@@
18.@@
Turk@@
deployment
assemb@@
Zivilisation
menting
beobachtet
Tai@@
bahnhof
vide@@
nische
Loch
ausmachen
G.
sequence
Works
profession
vielfach
ausgenommen
direkter
ausgewählte
surfaces
Gab@@
Schließung
Ganzen
micro-@@
endorsed
Mira@@
einbeziehen
venues
Beobachtungs@@
investig@@
pending
Berlusconi
enhancing
Rücken
Konfigurations@@
Währungen
Komplexität
künften
modifications
hoff@@
Sofia
erzeugung
5000
ausgewogen
jen@@
Jahrhunderte
accompanying
highway
classified
Exeku@@
ungsh@@
Lama
Democracy
gebor@@
limitation
TW@@
ont@@
exclu@@
Tagungen
Nicol@@
GM
FP@@
clauses
Jacuzzi
attraction
endo@@
ermittelt
disch@@
Konsumenten
erfahrenen
strikes
verlust
Albu@@
sämtlicher
touristischen
aboard
ausgeliefert
prerequisite
Erfassung
correction
packt
obstacle
Etage
brachten
alia
andau@@
Acti@@
reti@@
fizierten
außer@@
RS
echter
Kompromiß
Bewegungs@@
sonni@@
relie@@
Gedanke
Konferenz-
dürften
Cleaning
probe
dringlich
Verhinderung
Kari@@
Befu@@
Merkel
Daraus
dichte
nahen
Änderungs@@
UNO-@@
19.@@
Rosen@@
Against
sache
Everest
calcul@@
wash@@
Voraus@@
terra@@
Innsbruck
Porsche
fier
Bürgerrechte
Publikationen
Vorsicht
äußer@@
punishment
Schuh@@
Minist@@
Sty@@
atta@@
aiming
assador
kunfts@@
Schwach@@
Schnit@@
Fassa@@
Liter@@
situationen
Hunderte
Beispielsweise
detention
Zutaten
intuitive
ruf@@
reservieren
limiting
Geschichten
Rica
reimbur@@
nings
1.1
tick
Laundry
iell
Fischereiabkommen
gesu@@
dynamische
Wag@@
Hotelzimmer
riert
Imple@@
kör@@
Rum@@
Clinton
complementary
mobilen
24-hour
bekam
baro@@
Zah@@
Guatemala
Alban@@
Doku@@
priced
Eck@@
vy
TER
interventions
Learn
Nichts
tually
hunting
Gur@@
rounded
jenige
geschenkt
Erkrankungen
Biom@@
tles
14.@@
fulfil@@
Zigare@@
männ@@
escal@@
authorit@@
Cancún
3.5
vertical
dioxide
basierend
bestätigung
pris@@
Kling@@
irgendeine
erwarte
aktiv@@
Konzerte
defizit
begrenzen
Auflagen
Königreichs
sends
rear
Phan@@
dramati@@
Tie@@
LI@@
quoten
dorthin
Buchstaben
Erwerb
Laman@@
Ec@@
Aufklärung
baute
responding
auto
seitdem
pedestrian
perfe@@
rts
Konvents
behei@@
tras
annually
och@@
identifying
Petersburg
Peking
duplic@@
Ash@@
ausgebil@@
Exhibition
Little
sozial
Kindes
Akzeptanz
Abend@@
arme
definitive
Consul@@
sorts
paint
versprochen
ave
rieben
improves
klarstellen
disabilities
dicht
compos@@
Davon
advisory
Directors
asi
instant
divisions
ietet
Kanäle
spru@@
Smart
Bulgarian
arena
inierten
anwendungen
ments@@
Erschein@@
Tschetschenien
beliebtesten
Ausschüssen
awa@@
pricing
ammern
vereinbarung
Wh@@
py@@
Love
Clients
kunft@@
schätzt
Bün@@
Industriepolitik
Nutzern
Angebot@@
ausreichen
Jack
HA@@
frau
morali@@
Word@@
cco
oods
Erweiterungen
Awards
verhandelt
emis@@
aufrufen
Rechtsrahmen
Canary
Trav@@
problemen
drew
Aufpreis
Flächen
effizienter@@
Moldau
bör@@
begünsti@@
abzugeben
abschluss
pflegen
bor
späten
dairy
reiches
bestände
Theatre
Toleranz
Dom
artigen
Kei@@
bedaure
Fax-
sprin@@
Demokratien
preisen
Agen@@
Modell@@
broadcasting
gle
Diejenigen
embry@@
Elite
multilateralen
RA
Anth@@
mord@@
Tastat@@
Verpackungs@@
safeguards
feier@@
acu@@
Ferr@@
pré@@
Rechen@@
penet@@
zin
Journal
festgehalten
Benjamin
thwest
Verwen@@
perform@@
owing
origins
BSD
Saudi
undi
Zyper@@
alpha@@
grafischen
gezahlt
seas
gebrachten
6-0@@
council
römischen
Rohr@@
abhängen
CO2-Emissionen
gessen
Texas
IF
sleeping
Forscher
smoke
Kriterium
anlässlich
yield
ordering
Zusammenfassung
Glücks@@
Formel
Grü@@
confidential
berge
snacks
verschärft
sag@@
Brand
boom
Zucker
turn@@
Heiz@@
sparteien
Bangkok
Vorgang
laufend
zir@@
damaligen
zuführen
Genauigkeit
Sozialpartner
fän@@
developer
help@@
comprehensible
morgens
Elektriz@@
Veranstaltungsräume
contam@@
Fokus
navi@@
brand@@
Scrip@@
Layout
portion
giant
night@@
bürgerschaft
Resultat
Unterricht
bewahr@@
Zukunfts@@
Standorten
meint
Borg
genetisch
europas
amerikanischer
double-@@
Galax@@
Erhebung
ehren
Quadrat@@
Kro@@
MM@@
aving
Congo
ition
abschließ@@
schicht
zio
ergy
stel@@
diam@@
note@@
Weiter
Aparthotel
Nachbarschaft
Kampf@@
bund@@
Nag@@
aki
pe-@@
Strecken
Canadian
sensi@@
besichtigen
tner
stants
ausgerüstet
Though
anch@@
ever-@@
herausra@@
consolidated
train@@
vorgesehene
tank
rer
Internation@@
unternehmer@@
crats
amendo
there@@
Canal
pull
rors
außergewöhnlichen
pop
dev
detect
region@@
Assozi@@
plu@@
liqui@@
figh@@
Script
Wollen
inspections
condem@@
erec@@
defin@@
anne@@
verweist
consolidate
möglicher
recognises
praise
.NET
verschi@@
geschnitten
oberfläche
Albert
Funktionsweise
winkel
Tabellen
lifting
Vegas
bets
Gemeinschaft@@
H.
fridge
Fusion
Sloven@@
Shutt@@
É@@
surro@@
inland
setzungs@@
Schlo@@
Bruder
ratify
berühmt
stuhl
unmittelbare
oph@@
würdige
blicke
essor
funktions@@
card@@
grafische
overwhelming
SPA
medic@@
gescho@@
compiled
erho@@
Nit@@
hosti@@
ctu@@
urop@@
guitar
Vollständigkeit
Zie@@
hygiene
modernsten
Cruz
schriftlichen
documented
krank@@
bewäl@@
roten
Schritten
wheels
uts
metals
bottle
einrichtung
Nordirland
genommenen
ländischen
loads
Klaren
biologische
SIM@@
baggage
dramatically
spreading
betreut
prescri@@
familie
Ergän@@
Anschließend
costly
visibility
gee
lichte
versi@@
Megapi@@
sth@@
themen
theoretical
legendary
distinguish
pflanzen
frames
Spirit
fairer
mein@@
Inzwischen
Benz@@
merken
democracies
transp@@
World@@
gefahren
landing
geographi@@
screen@@
Schri@@
supporters
apped
Algeria
gster
Nul@@
Werde
Down@@
Subsidiaritätsprinzip
schien
Walter
ignano
38@@
CD-ROM
menden
ergi@@
Bolkestein
Begeisterung
Rollen
Linken
Imm@@
passport
linder
Ds
nisch
Vertrau@@
ired
sweise
schau
Balance
witnessed
multinational
demonstrations
aufgeführten
Anleitung
Files
settle
wenngleich
dek@@
enta
Spock
salle
cathedral
Allein
blocking
gesenkt
Europe@@
Vall@@
auseln
foodstuffs
Stab@@
quo
Rohstoff@@
productions
Datent@@
zonen
mitglied
SK@@
galleries
investitionen
spartnern
kapazität
söhnung
enforce
optimiert
~
diet
Umstellung
partnern
markiert
burning
én@@
Schriftliche
tiers
Zwischenzeit
attraktive
trinken
exi@@
Sahara
Fis@@
irrespective
arest
Cards
corporations
vign@@
clas@@
Israels
sident
compla@@
ancies
unweit
artier
erbar
RF@@
Besetzung
ausgeben
our-@@
formerly
Ben
defiz@@
Songs
geschäf@@
Hindernis
dimension@@
Reserv@@
gulierung
ORE
bestanden
mac@@
disappear
veau
Folgendes
pushed
Gutes
confirms
horn
humane
definite
Norm
hip
Lust
Check-In
reaffir@@
Dutz@@
korrigiert
controll@@
zuständige
thilfe
CV@@
Endes
feasible
even@@
Andro@@
uniqu@@
brun@@
faktoren
cue
tori@@
Sites
ISA
wunderbaren
Eingabe
Birma
postp@@
aktionen
Production
retained
protects
Viertens
partment
Kä@@
wasn
ausgestellt
Lauf
-System
einrichten
erbringen
forestry
completing
Fest
incidents
zenten
heruntergeladen
kop
gebir@@
750
Schad@@
taten
findung
Meas@@
veröffentlichte
Coo@@
siden@@
altitude
agra@@
Beibehaltung
Commerce
elung
beleb@@
aran
fragile
assessing
geschicht@@
ALDE
beauftragte
1980s
orange
Tier
ktem
gau
SOL@@
chips
Political
Gegenden
adjacent
Evalu@@
Wissens
Sammel@@
Ji@@
Behandlungen
dead@@
dossier
attentive
peror
Keram@@
verkauf@@
Hongkong
ceremony
anzusehen
wet@@
wholes@@
vertrag@@
FTP
Amat@@
autor@@
veri@@
Comfort
Formate
Stefan
foo@@
courtyard
economical
Zentrums
Fan
enberg
vities
ueber
produc@@
ergänz@@
kommunizieren
bedded
escap@@
24.@@
encountered
westen
colo@@
Gom@@
Höhen@@
Recently
detected
Photoshop
halben
Fülle
problematic
Harry
zulegen
opt
arly
Son
Biokraft@@
bewundern
ffe@@
Kyoto-@@
intent
ML
tent
Bedürf@@
Masse
Prüfungen
hec@@
lush
conten@@
jn
Klo@@
steine
trials
Viel
statt@@
echo
-Hotel
photograph@@
conducting
mware
tschechischen
Lange
introduces
Gewer@@
textiles
personen
event@@
manually
kü@@
Euro-Mediterranean
gangen
Somalia
inson
otive
stufe
nachfolgenden
-Sterne-@@
short-@@
Wanderungen
siedlung
construct
intelligente
schwach
verlu@@
letter@@
intimate
6th
gängen
administrator
Maus
haupt@@
druckt
spac@@
Fremden@@
Sicherstellung
counted
ktor@@
tery
Jes@@
Verzeichn@@
sfer
etwa@@
helicop@@
precautionary
Barro@@
Kolle@@
accessibility
GMOs
persu@@
tanks
gefangen
road@@
imagin@@
Interpretation
2.2
Delegationen
gelan@@
berry
posing
Sisko
wurf
perception
organising
selts@@
beherbergt
schwe@@
Inte@@
ro-@@
bewegungen
Ökonom@@
zusammengestellt
Asyl
actu@@
Therapie
o.
vian
stad@@
kommunik@@
rumän@@
Arbeitszeit
aufhalten
Colombia
headed
latein@@
Autovermietung
baths
end-@@
machung
Präsent@@
ensu@@
Infrastruktur@@
Folter
seller
vereinbar
beunruhi@@
architekt@@
kommunistischen
steu@@
Zusammenbruch
beihilfen
Rate
temporarily
henden
suchten
Experten@@
lasten
dali@@
09.@@
defeat
berechti@@
Egal
Crist@@
Bestände
Motto
Herzegovina
Einkommens@@
Aufnahme@@
measurements
Olympischen
ausgehend
Kurs@@
drän@@
viruses
Agri@@
Persönlichkeiten
wirtschaf@@
geeinigt
Scandin@@
cream
spam
fassten
painful
1972
ar-@@
Major
stü@@
renewal
fres@@
Still
Konvergenz
24-@@
gewaltige
gewöhnliche
Additional
withdrawn
erzeugnisse
bunal
Auskunft
eive
omas
here@@
Begrenzung
donor
vorzugehen
shorter
recru@@
problematisch
encourages
Inflations@@
anspruchsvolle
milli@@
Darlehen
beh@@
amin
durchschnittliche
Apo@@
Paradies
trächti@@
CIA
ansprüche
neutrali@@
zugang
topical
ktivitäten
ves@@
meaningful
übertragung
recti@@
initiate
IRC
NH
Zap@@
Erdbeben
Frau@@
wandeln
stle
büh@@
CPU
zel
Speed
ernity
verdanken
Blizzard
griffs@@
Gewähr
Div@@
loan
österreichische
emit@@
stically
Behandlungs@@
Quite
Parking
fig@@
protot@@
1950
appelliere
gie
vergleichbar
coura@@
ttaus@@
fizierte
P.
Schätzungen
Solidarity
ologen
warrant
verbundene
Jobs
Hochschulen
portable
Schlacht@@
50-@@
inch
haltenden
Beleu@@
einhalb
Imperi@@
iga
Nap@@
diplomatischen
observ@@
Unregelmäßigkeiten
aka
mile@@
debatte
compet@@
transparente
Streitkräfte
simulation
dio
äler
kostenfreien
DC@@
attacked
ulated
schrei@@
Kamer@@
Räumlichkeiten
Hague
versorgen
unkten
Unterstütz@@
continuity
Manchester
ateway
Sydney
Freizeit
Drucker
repar@@
anton
coastline
hs
Host@@
übergreifende
tta
Verschlechterung
kritisieren
installer
unglaub@@
Dür@@
stück@@
ehr
Durchschnit@@
wisdom
teri@@
LabVIEW
in-house
Smart@@
Ungleichheit
quoted
steigende
gasse
EW
smallest
resultier@@
Konzert
lv@@
princip@@
Angola
tice
kontra@@
php@@
behindern
haz@@
fulfilling
tei
tendency
broadcast
Zertifizierung
Wandern
Hear@@
Beschäf@@
assen@@
uty
lack@@
consi@@
Fortunately
beheben
juristischen
SEO
floods
demselben
arre@@
Mitgliedsländer
ausgeprä@@
Blä@@
suppor@@
Beauty
gerte
Stoffen
ggf.
Hauptziel
Split
laimed
erzählt
erstre@@
Below
sé@@
osteuropäischen
Volkswagen
OSCE
sche@@
Temperatur@@
desi@@
traf
lieferungen
backup
Piet@@
tagung
home@@
Ansprüchen
writers
Protot@@
Haut@@
uno
TEN
fabulous
Motoren
holt
Estland
inappropriate
Stabilisierung
Datens@@
er-
beunruhigt
Hygi@@
pository
formity
crimin@@
Bibliotheken
1960
Germans
ungsphase
spiri@@
disku@@
Gremien
Virtual
Twitter
Nachrichten@@
ext
lifelong
Ermitt@@
untersagt
Reisenden
FREE
Red@@
nightlife
six@@
Heidelberg
très
zügig
Reparatur
riffe
entnehmen
Gemeinschaftsebene
Screen@@
Along
damm
schmer@@
Tony
Dr
brea@@
toxic
ACE
Effec@@
tranquil
adv@@
bition
shes
bub@@
Hydro@@
Vieh@@
Kloster
Organ
Promenade
draws
einigt
PVC
traditionally
BE
Einsparungen
Schlacht
schlimmsten
Harmon@@
irregularities
Übereinkunft
Photocopying
ain@@
suits
cabin
Rie@@
gefertigt
Zusagen
soren
anzuerkennen
kriti@@
dell
mietung
Defizit
2.1
S-B@@
TRA@@
organisms
verknü@@
erholen
virtuellen
endums
Verhaltenskodex
leuten
höherer
Pfeiler
gerlich
brilliant
Monats
jemanden
Kongo
optimized
hair@@
privileges
demnächst
illness
Pazi@@
boutique
surf
Six@@
verantwortung
Konsolidierung
aver@@
Delta
cooperative
Conci@@
psychological
Multi-@@
Wiederein@@
noble
Fotokopiereinrichtungen
zuvor@@
iser
photo@@
Frankreichs
drängt
komplizierten
singer
dion
priori@@
beginn
Images
belastet
Questions
Zweifel@@
erhebt
yle
Phasen
Fundament
Bit
Ala@@
theken
berat@@
Begleitung
Fiel@@
coordinating
wid@@
distor@@
Tuscany
bik
Machen
weiterentwickelt
hony
buffer
Blau@@
Schauspiel@@
bury
7th
races
läufigen
gliches
entsprechender
chno@@
beugen
chtest
Blei@@
unglaublich
klick
gangene
Charakter@@
verzeichnis
contro@@
lling
thick
Chemikalien
Mercure
reluc@@
Legi@@
Schließ@@
Applic@@
surance
exacerb@@
stent
Broschür@@
wünsch@@
Informationsschalter
stra
responded
refusal
utz
bilaterale
anzen
Johannes
Überwindung
tasty
miner@@
mutz@@
warran@@
Musiker
timing
proch@@
hebung
irgendwann
affen
Hinzu
Rohstoffe
Mitglie@@
Willi@@
Chancellor
aba
zwecken
Mannschaft
Lady
plot
cons
Bestrebungen
Garanti@@
Verw@@
Creative
Engine@@
Migranten
Pots@@
überdenken
pedia
privater
righ@@
vernünf@@
cel
getroffenen
dei@@
herrschenden
protests
Evaluierung
existi@@
dimensional
south-@@
Cadiz
komponenten
ILO
Equipment
admire
fitting
komplizierte
zurufen
herbei@@
communist
polizei@@
counter-@@
concessions
farm@@
spark@@
gl
burn
zuhalten
readers
Meister
perceived
stenten
reserv@@
glas
volumes
understandable
geschnit@@
depic@@
Conil
Frühstücks@@
linear
Gehir@@
dant
verschul@@
läßlich
gambling
round@@
gigan@@
mär@@
Küh@@
scan
Designs
Kamin
ude
Liikanen
ART
bookings
erung@@
skri@@
GAT@@
Öff@@
besorgniserre@@
geber@@
memories
Wartungs@@
Chris
nahe@@
massiven
itals
Import
denburg
Côte
lun@@
stellbar
Verwenden
infrin@@
glau@@
socio-economic
torial
dish
tied
Catholic
versorgt
streiten
gedenkt
definitiv
Trock@@
Gewässern
definierten
N-@@
disadvantaged
esenen
unternimmt
employ
Diversi@@
Viren
berechtigte
kreative
Tragen
pension@@
Pay@@
Info
varying
statutory
Appell
23.@@
ás
flora
tigste
casting
verteidigt
eggs
DE@@
hops
evenings
zug@@
Entdeckung
flexiblen
Thessaloniki
abgedeckt
Korrektur
Gesprä@@
stitu@@
aufkommen
Temp@@
Minim@@
ierter
Kompetenz@@
Points
Bedrohungen
kultureller
mende
barrier
untergebracht
erweise
ünsti@@
big@@
dropped
recur@@
ereien
überwachung
Aufteilung
tled
arbeitenden
automobile
befreit
Häusern
verlängern
Ih@@
abetes
speculation
verläuft
Cardiff
Romul@@
anto
Wand
gelegentlich
ith
Night
MIN@@
crus@@
proofed
serie
belastung
convey
Wri@@
Pfad
Mitbürger
Bestimm@@
animation
Memory
market@@
advan@@
prüft
Modellen
Plattformen
Vulkan@@
diagnosis
Auslands@@
Unser@@
mitzuteilen
ehrgeizige
voltage
Some@@
veranlassen
Back
den-@@
harder
CR
gemeldet
aufgegriffen
marble
ruins
Mittagessen
Spiels
geneti@@
Stars
linen
exzellente
Priv@@
Versicherung
Ecu@@
EEC
pretext
Piz@@
desc@@
Neut@@
Secretary-General
widerspiegeln
estic
earthquake
tritts
Doctor
verursachten
folgendes
Angehörigen
assu@@
Ents@@
Ausstellungs@@
ckness
ront
hôtel
exemption
Zuliefer@@
katastrop@@
soll@@
Symb@@
bestehend
dying
trace
¶
exakt
Base
stresses
Incre@@
Holding
defines
gelassen@@
ried
hervorzuheben
E.@@
quiry
perfekten
ounced
lou
gehalt
Kanz@@
Gesichtspunkt
Beschränkung
viewer
outermost
Vern@@
GVO
EZ@@
konfigu@@
preserving
Guantánamo
wahrgenommen
Verfas@@
pots
wälte
aufgeben
toys
gewahrt
muster
Terrorismus@@
Tauchen
Fam@@
broadband
attraktiven
locked
betreffende
Misch@@
Articles
pushing
ultra-@@
schreiten
nett
lässigkeit
grundsätz@@
Sän@@
technologien
entziehen
qualification
Appar@@
press@@
Sn@@
haltende
trun@@
Klang@@
Erziehung
conscience
Aufstellung
20.@@
obliegt
Castro
ausgegangen
AKP-Staaten
preparatory
aston@@
dark@@
ply
abzustimmen
instances
Badewanne
profitiert
hardt
hinreich@@
DB@@
mediterran@@
disadvantage
Texten
shame
Budd@@
literally
Stay
Jen@@
Szene
einschlägigen
Erzeugnissen
ons@@
prozessen
medien
ard-@@
Herzlich
Hob@@
collecting
Alicante
durchschnit@@
Jahreszeit
förderungs@@
Song
tackled
uneingeschränkte
Clean
mord
ftwa@@
Price
wehr
erup@@
Geschlech@@
zucht
versichert
territorialen
Erwachsenen
laundry
unge
italien@@
sichten
anti
pflicht
random
Has@@
philosoph@@
som
Monitor
mean@@
worlds
opera
mare
getre@@
wünschte
Turni@@
Rechtsprechung
teilnehmenden
UT
v.@@
Monu@@
ras@@
Active
hoping
coating
capitalism
DNA
FT
assungen
pir@@
irgendwie
sensib@@
Raf@@
Handhabung
ggen@@
Italiens
Freilassung
Tepp@@
boot@@
Montreal
reihe
broadly
borro@@
andin@@
CMS
Unfall
Klassen
behindertenfreundliche
geschä@@
formulieren
bend
inet
experiments
bemü@@
Einleitung
Upgrade
upgraded
Poettering
missi@@
attitudes
plung
Lamp@@
GEN
Verkehrsmitteln
extremis@@
Modi@@
anerkannten
steil@@
Warnung
wohnt
uten@@
Mitgliedsstaaten
sh-@@
Machine
Trä@@
erstklassige
anschauen
Algerien
Überleben
Secure
Einerseits
Cafés
protectionism
aults
thotel
trendy
Geschäftsreisende
exotic
commend
stock@@
inequalities
Allgemein@@
transnational
eigent@@
catalog
KO@@
eliminated
fürchte
ahme
empfehle
slide
erhöhte
entfernten
cho
erzielte
e.
Gestalt
äle
peripheral
auswahl
schiff@@
Kim
Cash
sau
Energiet@@
Verhältnis@@
Chianti
Model
Nepal
impressed
outline
Preises
Verbin@@
Verstöße
seed
ichtungs@@
Offic@@
Oster@@
disappeared
diente
objections
Partic@@
Hollywood
agua
ysteme
Kommissars
hinnehmen
Obst@@
Erwachsen@@
Garage
ardo
Jet
Whatever
demon@@
oasis
adop@@
verbrauch
anien
persecution
verwandeln
rassi@@
chie@@
depen@@
stisch
gieb@@
verarbeiten
Daneben
conditioned
Logistik
beliebige
Lyon
eliminating
Parlamentar@@
Leb@@
wood@@
mittelständi@@
tub
Reding
Med@@
Haltestelle
presiden@@
Etiket@@
samt
anticipated
vising
stationen
Produc@@
45@@
anmerken
hine
retention
merchan@@
beeindruck@@
zern
behilflich
archives
konzer@@
German@@
Mitentscheidung
andel
Continental
versprechen
anism
ane@@
fak@@
Partition
sozio@@
tom
batteries
Nas@@
schweigen
livestock
Bemühen
gewöhnlichen
democratically
vin
Wohl
maßgeblich
Hans@@
Graphi@@
Wagen
nächstes
Autorität
Mineral@@
Bach@@
Page
Mini
poorer
respec@@
astronom@@
anta
zte
municipality
beeindruckende
revolutionary
handi@@
Aufstockung
Seel@@
anci@@
ALL@@
Radisson
mma
archite@@
obgleich
Gebäudes
Lebensbedingungen
transi@@
heimischen
injury
aufrechtzuerhalten
sein@@
einstellungen
mitt@@
tops
Konservativen
Finn@@
shoulder
ritten
fläch@@
serb@@
yiel@@
willigen
IK
Pestizi@@
haft@@
verwendete
schlag@@
Nan@@
pressures
sensors
gathering
westliche
sic
stetig
transeuropäischen
Genehm@@
KL@@
stellern
veränderten
repräsent@@
Trainings@@
leisch@@
betragen
stadium
facilitating
gewähr@@
tat@@
Mario
Freihandels@@
198@@
köst@@
rah@@
Gesetzgeber
elektrischen
Ergeb@@
park@@
Boutiqu@@
aker
vibrant
unterrichtet
Instabilität
gesetzgebung
Trin@@
stö@@
Direktor
updating
imple@@
gängig
onisten
Rose
eingeschrän@@
banken
Akademie
YouTube
positively
energe@@
ausreich@@
iors
His@@
beschleunigt
ovo
Genfer
grass
Kast@@
dialo@@
eping
Jahrzehnt
Solar
einräumen
nai@@
Cash@@
Einfl@@
stür@@
Studies
inspec@@
shut
überschritten
Ple@@
attending
antwortet
beauftragt
haber
setzungen
voor
Donn@@
semin@@
verlin@@
Slideshows
Kohäsionsfonds
sical
sprüche
fortsch@@
vri@@
ASEAN
grain
Ukrainian
Höhepunkt
terie
strukturellen
Variablen
pursuit
persuade
Weltkrieg@@
Werken
Oberflächen@@
Ausnahme@@
weaknesses
Zeitalter
Protektionismus
third-country
ð@@
cane
ycle
slight
Bandbreite
ICH
Monaco
llo
disc
forder@@
mittelalterlichen
Alz@@
10.00
Explo@@
gress
gewaltigen
tality
shortage
offer@@
verweigert
mood
Fau@@
thirty
opol@@
Dekor@@
dierten
stainless
ört
need@@
oll
BB@@
Seminare
platt@@
Strafe
etch
Corbett
ae
Málaga
wirst
antique
Sw@@
undering
Fahrzeu@@
zusammenhän@@
tissue
widerspiegelt
befürchten
folgte
Manuel
privilegi@@
Schwanger@@
gefährlicher
konvention
Dell
Reichweite
GA@@
glicher
einfaches
weal@@
thur
stly
Hof@@
höher@@
screens
launching
oberste
Zahl@@
zoom
signatures
eventu@@
contradiction
Tiefe
gency
Schulungen
christlichen
Vermögen
infection
Wärme
laim@@
screening
schrän@@
Inhalts@@
adidas
Spiegel
Aussehen
weiß@@
protein
gekürzt
dirty
inion
Herzegowina
konkreter
Gerü@@
einwand@@
pus@@
komb@@
geplante
bilität
Gleiche
VA
birgt
Aufbau@@
Palast
gänzlich
insur@@
denkbar
incredibly
Natura
Klausel
refreshing
begeben
ICEcat
Vergabe
Jordan
Mitgliedstaates
Bologna
holz
ordnungen
nachkommen
inas
Baro@@
geable
11.00
sprachige
represent@@
efs
Nachfolger
deliberately
unzählige
Cypri@@
isons
Regierung@@
zwingend
aked
Typen
cury
Pisa
unic@@
Beantwortung
Giovanni
Ehe@@
gesetze
Medium
Leiden
distinctive
schlicht
List@@
geschlossen@@
geheim@@
hrt
kommend
neo-@@
notify
Festivals
mah@@
Generi@@
Ball
osity
chnung
boy@@
PayPal
void
Sustain@@
folk
Ethernet
Schauen
komfort@@
sheep
Vö@@
enses
Vorsorge@@
lemma
Diskussions@@
Sandstrand
überwälti@@
wis
Zinssätze
Prince
tot
decke
vic
resear@@
Vide@@
10.000
sprechende
Fische
Argent@@
Wellnessbereich
solarium
gated
acres
Vali@@
lagen@@
-Fraktion
crop
damp@@
Koch@@
ITE
Wiederaufnahme
attack@@
passion@@
kenne
offizi@@
Eurojust
bräu@@
hinausgehen
relevance
Ausserdem
tigsten
desert
häufigsten
dog@@
Turm
andal
überarbeitet
bean@@
Certainly
ao@@
Marra@@
Jav@@
endung
satis@@
vegetation
ethn@@
enda
herauszufinden
nahmen@@
model@@
günstiger
Pakt
erzählen
Haushaltskontrolle
lending
agenturen
redund@@
stärker@@
iten@@
dn@@
Band@@
täu@@
partments
analog
ance-@@
ius
LK@@
tration
Spannung
Male
zwecke
Afrikas
elimination
riften
wöch@@
Lab
Musli@@
besuchte
¿
Münzen
unde@@
density
ventions
congress
affair
Schnee
Unit
Standor@@
thou
Aluminium
USE
adi
edo
merkt
Princ@@
verbesserten
Angestellten
DF
blich
Unfälle
varies
unterschiedlichsten
vorgaben
experiment
cultivation
ret
Messen
Century
complied
dose
müßten
erhielten
DEN@@
Bavaria
bestrebt
Bestandteile
Turin
negligence
Americ@@
establishments
EWG
Entsor@@
chair@@
mau@@
2050
fasc@@
Us
potenziellen
Folgenab@@
valued
Beau@@
Anbau
sensiblen
scheinbar
cion@@
Officer
Ostse@@
exportieren
eiro
én
Mic@@
husband
Boli@@
Tempel
belebung
Championship
einzeln
nachtei@@
Cotonou
cz
Note@@
rays
ämp@@
part-@@
Dolomiten
vene@@
propaganda
ultur
deckten
Mix
cians
Meerblick
Kart@@
1.0
geschah
Reisende
ssig
licences
dachten
ihrerseits
Boutique
angekommen
speisen
Technologie@@
lässig
possession
repercussions
Traff@@
Genau@@
reminded
vorherseh@@
Alex@@
port-@@
Swe@@
Legisl@@
contamination
Familienzimmer
Vet@@
embargo
Patch
aufnahmen
aufw@@
pity
ehrgeizigen
Stabilitätspakt
Belastungen
staff@@
Herstell@@
Schwi@@
Gewerk@@
anbieter
richtlinien
Button
gemeint
Inc.
ückt
hielten
fried
stabil
eder
zuverlässi@@
stretch
bürgerliche
accompany
enttäu@@
Mön@@
schär@@
specul@@
lib@@
rump@@
basin
begriffen
posting
Scottish
Beitrittskandidaten
dlern
malen
sme@@
sib@@
Zusammenhalts
belast@@
Ansonsten
particip@@
ego
Eigentums
NT@@
Has
Universi@@
Meilen
verlaufen
hosted
Oliver
tiveness
intu@@
roph@@
Kürzungen
folgedessen
G8
Quartal
tigkeits@@
tigungen
circul@@
blauen
zion@@
manoeu@@
modernis@@
Finanzielle
Applikation
nein
descriptions
griffs
Ausgewogenheit
replacing
Kit
vegetable
ranking
informations
organisator@@
County
ühlen
esthouse
Betrü@@
displaced
Slovak
Bike
Kurdish
Wohlergehen
rewar@@
Magazine
herrschaft
absta@@
positioned
kat
operieren
thrown
asten
see@@
stati@@
großzügig
eb
Banquet
gaps
Filter@@
closest
popularity
ausschließ@@
erender
Ausdehnung
pit
liebt
diplomacy
Qui@@
einheimischen
distances
hood
vorüber@@
Zentralbanken
Atlantik
Fit@@
igungs@@
umfangreiches
mitting
rechn@@
correspond
Sey@@
Catalunya
öser
visten
unen
sprung
Zertifik@@
1971
splan@@
refund
prostitution
ateur
invasion
handelte
Periode
spati@@
eph@@
Clau@@
erbe
Near
prison@@
Eich@@
Archer
Palm
zusätzlicher
Zol@@
Rotterdam
Course
successes
voranzubringen
racy
live@@
lia@@
yacht
shipment
promptly
Chro@@
Gü@@
Teilnehmer@@
laptop
dliches
Far
vorwiegend
Blü@@
energi@@
entscheidungen
dealer
spreis
ffer@@
real-time
imbalances
Autob@@
Betrieben
Botschaften
verläss@@
Befürchtungen
wearing
Komplex
fin
satelli@@
drag
rasse
tzen
Themas
wins
ThyssenKrupp
MEP
Erwägungen
freiwillige
Police
Spekul@@
unverändert
115
Airconditioning
Erlaubnis
Psy@@
asien
haltungs@@
Ign@@
Attra@@
exe
Lettland
Kolumbien
fisher@@
gher
Katalo@@
schrecklichen
Stern
wissenschaftlicher
Tunes
servatives
Schwächen
Klassen@@
WE
A1
aufgeteilt
künstlerischen
Dolomites
kost@@
Wunder@@
concep@@
wild@@
potenzial
ehrte
ù
Edit
wiederherzustellen
Rettungs@@
möge
Steel
orientieren
Berat@@
captured
Almost
discipl@@
IS-@@
Globalisation
schal@@
Patente
vulnerability
Jahre@@
tiles
tragene
Symbole
mort@@
fully-@@
anscheinend
YOU
Bele@@
Gegen
activists
ameri@@
Lieblings@@
Krank@@
positiver
beloh@@
regulating
firma
offensich@@
Ära
loh@@
gra
veranstaltet
vollsten
105
10th
artikel
pakete
PE@@
tim
birthday
sored
esth@@
treating
telefon@@
Director@@
Öffnen
bring@@
ographie
Nobel
Inneren
komplizi@@
vertrieben
sanit@@
Baden
Wortlaut
Villen
family-run
macroeconomic
senses
zufriedenheit
Arafat
erledigt
grey
Lärm
begrüß@@
Klärung
Eintritts@@
diameter
accountable
Malware
Instanz
geru@@
Gestern
wap
incurred
eron
Ameri@@
-Seiten
CSS
kking
Lande
dität
fängt
Südtirol
steep
Aben@@
austerity
daraufhin
Ursprün@@
spir@@
Labor
versicherungs@@
midst
interoper@@
Feedback
zweit@@
zeh@@
sofor@@
Harmonie
bettzimmer
Leon@@
nav@@
konver@@
overseas
experimental
ängen
passage
donation
ernde
hosp@@
Erleichterung
wählt
22.@@
griffe
Ferrari
wissens@@
encing
zögern
decides
call@@
bauer
Erdgeschoss
Scientific
Motion
Netto@@
settlements
Profile
sebene
fehlenden
Davi@@
ermutigt
ICA
deployed
fossil
restlichen
magazines
unterzeichnen
compensate
nutrition
Acrobat
varieties
Property
Dokument@@
bold
Einfach
Portfolio
Christi@@
Welle
Ai@@
jeglichen
mächtigen
ested
biotechnology
Haushaltsausschusses
hospitals
befindlichen
Translation
Beschäftigungspolitik
Para@@
tired
Komit@@
stricter
Cany@@
Salon
häufi@@
Maybe
Anlaß
Fahrrad
gerin
IMO
ave@@
Schengener
Kontinents
entdeckte
minded
ALDE-Fraktion
built-in
Rücksicht
akadem@@
allevi@@
auszuführen
artiges
afft
Lagerung
Bewerber@@
horiz@@
voic@@
parent
Anmel@@
constituency
altogether
envis@@
Bah@@
chise
aussieht
Wallström
Brown
Astri@@
idylli@@
Fres@@
Flora
vertrauens@@
continu@@
Fed
utor
light@@
sere
ITY
Abonne@@
Einwander@@
Currency
Auschecken
stimulus
ritte
erledigen
europaweit
hne
Aktualität
auction
genocide
mont
Kath@@
gängigen
Expan@@
Workshop
lateral
cocktail
renovation
corrected
git@@
St.@@
scann@@
omo
conven@@
Iceland
deterior@@
mitig@@
Plätzen
``@@
strei@@
Liechtenstein
herkömmlichen
Streben
Jarzembowski
yards
kne@@
E-mail
zweites
Geor@@
apaz@@
virtuelle
Flor@@
Konzern
Varianten
olds
ova
Bewirtschaftung
ces@@
veni@@
angehört
simpler
Berichterstattung
wärtigen
angesprochenen
ancen
Lieferungen
entreprene@@
liest
Renten
Parlamentarier
Oran@@
Telekommunikation
crash
Erkenntnis
sortium
Innenhof
Blumen
dum
onian
sowje@@
steigerung
schnellstmöglich
ounce
Map
ser-@@
Nächte
tima
rh@@
Multimedi@@
scanner
wirtschaft@@
Konsequenz
networking
repräsentiert
flüsse
clarified
abolished
Alle@@
Tunnel
Stephen
Commons
subsi@@
Jord@@
thou@@
veness
Metrop@@
nesses
ganzes
Arctic
schot@@
Glückwunsch
exercises
accus@@
Zuwanderung
scrat@@
Flair
verification
Venti@@
Vitorino
Vertrauens@@
competitions
dear
chtig
Investi@@
wit@@
nels
lebens
AVI
banana
picked
São
bege@@
Eis
Freund@@
ularly
Bedauern
vermei@@
weakness
tract
Damals
vorsehen
spektrum
übernahm
KM@@
Werkzeug@@
liberty
läufig
Umwelt-
ernsten
luß@@
corresponds
wet
Serviceleistungen
Sozialdemokratischen
personalized
befin@@
purchases
Nachweis
abhängt
Nachtleben
muslim@@
subjec@@
Coff@@
generates
ahl@@
stituted
Stoff@@
erneuerbarer
uta
Energiem@@
Schulung
legungs@@
Verurteilung
enshrined
Verknüpfung
cure
Zeichen@@
Fuss@@
Iz@@
debts
dum@@
ampli@@
Decision
Profil@@
oping
Größen
Yesterday
Änderungsantrags
Liberals
Besatzung
Uganda
glän@@
guiding
rehabilitation
isieren
juristische
KE@@
momentum
thirds
gebot@@
beschäf@@
Emo@@
gentle
ordnungsgemäße
gnü@@
aga@@
umbrel@@
längeren
alisierungen
Spam
Challen@@
organizing
ecommerce
Akteuren
tastefully
speeds
Torre
stedt
extremen
lindustrie
präsent
timately
applau@@
travel@@
leck@@
Haftbe@@
Straßenverkehr
Wolf
bedeutender
Pent@@
iden
initiativen
Amerikan@@
Chinesen
Fant@@
moul@@
umfangreich@@
Auswertung
install@@
Filmen
legend@@
ld@@
seinerzeit
designing
tilien
strengere
ideology
Dün@@
Bearbeitungs@@
deliveries
Gescheh@@
motivation
commodity
teure
spiegel
westlich
.jpg
Logos
erstattet
forever
48@@
aktuell@@
itement
übereinstimmen
inierte
computer@@
Carl@@
Aar@@
Nahrung
injured
rahmen@@
Toskana
threaten
agnen
sitzt
Streit
Check@@
EI@@
Löhne
rigor@@
gesteuert
Teils
heimer
pfer@@
bulk
dening
Weitergabe
Di
CNS
Pakets
imagination
Meinungsfreiheit
acid
Nordkorea
axis
deutsch
ção
Temple
variations
Quick@@
news@@
pedition
loten
forbidden
multitude
Norwe@@
municipal
Gläu@@
symptoms
pse
injection
ference
Thom@@
Kohle
tariffs
dehnen
gelte
Iron@@
rocks
gepflegt
intern
widmet
tuna
aph@@
Füßen
ganzhei@@
Kraftstoff@@
umfassender
chains
fireplace
verfasst
bron@@
halbe
TP
ceas@@
Wid@@
seitigkeit
sooner
schwä@@
uries
Mare
manipulation
acou@@
strip
BAE
Rüstungs@@
pesticides
Moo@@
verified
depl@@
spri@@
hochrangi@@
punkt@@
Fitnesscenter
Flughafen@@
grace
griff@@
Auslieferung
anymore
wholly
teeth
PT@@
persönliches
Asylbewer@@
Bonus@@
Gat@@
gewalt@@
Gardens
intoler@@
prises
beurteilt
occasionally
versuchte
64-@@
ers@@
ethnische
agten
Arten@@
copy@@
Glan@@
ermög@@
ranks
eur@@
indul@@
Dienstleister
confronted
Rindfleisch
älen
unilater@@
Distribut@@
UP
intensity
legacy
favor
Lufthansa
buchs
restriction
Einträge
oi
tee
Codes
unglück@@
additives
beneficiaries
stehend
Europar@@
Color
einflus@@
ablen
Las@@
Erläu@@
avian
expecting
Mög@@
alarming
wendi@@
rechnet
vertrags
hafen
café
Á@@
abel
Speise@@
Remo@@
punished
Strafen
Speicherk@@
Felsen
Hochschule
recipient
ordentlich
tings
tune
occurring
Drittländer
Happ@@
BG
herange@@
dak
journalist
agn@@
befaßt
NA
entschie@@
echtes
Einigkeit
genic
ergie
Paar
etern
Züge
energy-@@
vereinen
angebot@@
Haftungs@@
orph@@
formulated
Inspi@@
VII
containers
ssi
appropriately
Messung
telefonisch
Agent
asymm@@
Art@@
Auseinandersetzungen
BA@@
YO@@
ause
Reservierungen
tschaft
räte
NGL
mption
Elba
instruction
strikt
fortgeschrit@@
Try
Dauer@@
risk@@
delle
fastest
rial
protesti@@
ure-@@
avoid@@
Ansehen
Snacks
encryption
allgemeiner
Seville
Dich@@
LL@@
unüber@@
stence
anschließ@@
land-@@
Lamy
kontinuierliche
Afghan
bow@@
Momente
tilation
Demokratischen
eco-@@
ATE
macher
millenn@@
Kommissionsmitglied
Five
enemies
Gebäu@@
educated
ambiguous
Camping@@
transparenter
verfassungs@@
ferenz
ito
Nic@@
grei@@
Date
Auswirkung
Dalai
Berechti@@
seating
Arbeiter@@
vernehmen
Hybri@@
Bevölkerungsgruppen
exported
specification
small-@@
Straftaten
Stress
bester
rischen
issuing
Estate
feeding
schätze
grades
transform
coa
asa
tsprü@@
uk
ologies
Peru@@
Cape
barely
graf@@
grande
flower
accomplished
asso
Laufzeit
geschäfte
Submitted
Official
Iber@@
ill-@@
kern@@
acity
Oper
katho@@
eno
othek
assor@@
ankommen
Wäldern
Available
matching
Terrain
substitute
Konsultationen
Programmier@@
Mec@@
ailed
baden
offenkundig
Heraus@@
Pressemit@@
COD
slowak@@
dul
Telefonnummer
rüstung
Dienstleistungsrichtlinie
Ersten
Fahren
Qualifikationen
Kapitalismus
Fotografie
offensive
üpp@@
Wirtschaft@@
WordPress
Ministerpräsidenten
tenden@@
plo@@
zeug@@
kulation
tout
diagra@@
`s
Rober@@
zyklus
billions
Electronic
eses
schwar@@
socialist
Jahrestag
Zufall
fahrt@@
Tok@@
attach@@
Ratspräsidentin
Enga@@
modul@@
ket@@
deinem
Finanzminister
Verschlüssel@@
Warsaw
MAS@@
Resol@@
Virtu@@
Schne@@
zün@@
reinen
ALE-Fraktion
nacht
beziehe
cozy
überschreiten
103
resist
Käl@@
Brief@@
clari@@
Spiegel@@
11-@@
liance
verhaftet
entzieht
verfü@@
financially
mg
NATO-@@
Ausbruch
detriment
Verlag
Crew
siv
mounting
elektro@@
ags
Zeitschrift
anführen
Richtungen
schlu@@
atar
lander
Risi@@
weitergehen
aber@@
pump
consultants
angem@@
zar@@
age-@@
Länder@@
Dialog@@
Friedensprozess
keit
derartiger
geared
neuro@@
stellvertre@@
invali@@
eler@@
nördlich
unterricht
Abreise
Croatian
wägen
dently
NA@@
kündigen
Größen@@
shofes
bevorzugen
influences
beträchtlichen
EOS
Unrecht
Architec@@
stered
Servern
bridges
israelische
Hack@@
herum@@
kontinuier@@
13th
Gesundheitsversorgung
Streitigkeiten
kateg@@
Eingan@@
factories
101
oro
Sad@@
traten
roler
mobil@@
incomplete
hoben
gela@@
sofortige
gewöh@@
vertiefen
dh@@
Grie@@
devote
strich
rede
binary
tu
offener
burdens
Mut@@
Unterschie@@
mysteri@@
Forschungs-
Emission@@
rationen
chio
stücken
prevail
finnischen
room@@
unterschied@@
Tschech@@
duly
Krebs
Stärken
Consu@@
denom@@
K.
utable
gebot
001
historischer
da-@@
finger
gleicht
Dame
erkt
resident
Klu@@
gerech@@
self-employed
Mehrheits@@
verkörper@@
mußte
Map@@
Vormittag
Privatisierung
gewäs@@
ungen@@
03.@@
alleged
Hochzeits@@
kitchenette
air-conditioning
Kodex
households
Alli@@
Interventionen
freiwilligen
Terror
alleg@@
EU-Bürger
baum
Audio-@@
lings
jar@@
allgemein@@
pragmatic
commission@@
Umweltpolitik
luxuriösen
U.@@
etti
dienstes
wörter
voraussichtlich
polite
thful
verständnis
Secre@@
studierte
bah@@
Aussprachen
Fachleute
Kinderbetreuung
sahen
Sich@@
Weihnachten
Trocken@@
ouldn
³
Aktionsp@@
criticised
juice
amos
Competition
Vertiefung
ankommt
toff@@
wle@@
Synchron@@
worthwhile
postponed
eingenommen
farbe
multinationalen
zulässi@@
jur@@
indischen
Gefühle
enny
biofuels
coin
mmer
Dorf@@
Haushaltsmittel
Überschwemmungen
privat
brücke
Associ@@
rechtlicher
Bestreben
Sech@@
hormon@@
zona
volution
springs
auszubauen
zweier
kompati@@
melo@@
ungarische
Fris@@
klam@@
radioactive
fem@@
wettbewerbsfähig
frozen
schwachen
forecasts
accurately
Lärm@@
zzle
zens
essively
patio
SR@@
har
reprodu@@
erholsamen
Umstand
ex-@@
mature
mothers
kW
misleading
cafes
ämmen
Jeden
Beschluss@@
Palais
Logistik@@
strongest
Bildes
galt
Anstatt
-and-@@
geld@@
Diesel@@
cham@@
fixes
appellieren
Finden
GL@@
vergabe
ject
beizubehalten
Auftreten
reward
spective
defended
atom
licensing
Commer@@
terten
Fire
risiko
Skrip@@
do-@@
ausch
umgewandelt
delightful
schwarze
Signal@@
nder
geehrter
Nau@@
extre@@
zugewiesen
Rhyth@@
asy@@
Fourthly
Prot@@
Core
faden
graben
etto
Cus@@
Vorder@@
Ou@@
predictable
glas@@
unterstützten
af
verwandelt
eks
aufgezeigt
aufrichtig
harmonise
eindeutigen
licenses
Fehlern
endt
Presiden@@
Organis@@
Zar@@
Enttäuschung
codi@@
aton
mitgliedern
intermedi@@
fabrics
Daß
unab@@
haltens
erous
accoun@@
halls
Softwa@@
discriminatory
Wunsch@@
quanti@@
Adress@@
commissioned
Strö@@
seasonal
submitting
aufgegeben
Verstoß
gian
ethan@@
gebern
Vertreterin
riebenen
inter
hauses
verfolgung
horri@@
She@@
Defini@@
Pixel
DB
breiter
angestre@@
güter
ffekt
Befreiung
jazz
cease
kilom@@
verschieden
graus@@
Bilder@@
Lic@@
handy
demo
Reception
destroying
gültige
ole@@
Übernachtungen
Progres@@
transl@@
directors
Gehäuse
promin@@
östlich
Eden
Deck@@
rises
Economy
Museums
hill@@
dened
Bezüglich
Hot
Anlage@@
onna
normali@@
Hart@@
ograph@@
liberale
ernähr@@
Amsterdamer
geprä@@
recommends
Esc@@
Napole@@
aspirations
gates
entschuldigen
Bow@@
ausgedeh@@
Franzosen
Orchestra
inkl
Öffent@@
informative
rag@@
Spaniens
gekrön@@
II-@@
vot@@
Oft
Lay@@
neutr@@
stamp@@
Verspä@@
establishes
celebration
massiv
Japan@@
trage
prehen@@
augen@@
Wertpapier@@
earliest
acion
Funk@@
Egyptian
dringende
fert
halle
Impro@@
criticisms
sided
beeindruckenden
Istri@@
arch
Ethiop@@
Grundstück
verurs@@
trage@@
transposition
Anfänger
rand
ma-@@
fikations@@
Wäre
Geldpolitik
hilfsbereit
bestimmtes
Brüder
koennen
awaiting
feldern
Johann
Posten
226@@
ausdrück@@
shores
überwunden
Seven
wieso
soviel
vas
ode
annter
oven
Swiss@@
preci@@
broadcast@@
zuzustimmen
Krankenhaus
certain@@
fachen
verlor@@
Stehende
recreation
kings
Prices
Meeres
äter
consec@@
Schuld@@
prinzipien
Provence
enforced
Leser
exceeded
alar@@
bein@@
agers
Käse
Unix
second-@@
privilege
prospec@@
elligkeit
unabdingbar
Mitteilungen
Bangemann
recreational
1200
Politikern
enzo
grundle@@
Personals
sements
Rati@@
flich
Zoll
Polo
Emer@@
lossene
mediterranen
Schwein@@
opath@@
moment@@
Internetanschluss

Persönlichkeit
Einmischung
masters
fortress
tachten
zeugt
Mehrwertsteuer@@
krei@@
plug
Erfahrungs@@
Exist@@
architect
reveals
Gothic
ordnet
wns
remuner@@
Check-Out
bekistan
lebte
erschwert
Installer
prinzip@@
func@@
Beschleunigung
infected
geordnete
Verband
ält
einziger
Marx
Frühstück@@
Pakist@@
ias
dafri@@
Alexand@@
1.000
antrags
getro@@
intensiver
Errungenschaften
gezielte
Tabak
Län@@
HER@@
timent
ärten
beck
gewichte
übergreifenden
acute
Kürzung
geleistete
forti@@
rentals
MHz
Dien@@
univer@@
Ment@@
Schaff@@
gladly
Oase
Vaku@@
DSL@@
alto
blow
Gemäl@@
bevorzugt
Verpack@@
Zeilen
ender@@
oun@@
absoluten
LT@@
Erforschung
ausgeht
apo@@
älteste
rhetoric
Amb@@
patenti@@
German-@@
exter@@
entlassen
staates
Zeitsch@@
Strei@@
Fontaine
spiritu@@
Schnittstellen
fehle
competing
EST@@
möbli@@
Klei@@
berechnen
Vati@@
zusammengefasst
Moz@@
Naples
Bisch@@
Mär@@
Transfer@@
logos
gendsten
sorgungs@@
orded
Finger@@
rig@@
ouren
promotional
cone
Cohn-Bendit
Geduld
Bananen@@
ästheti@@
purchaser
imstande
zukommt
Gewis@@
katastrophal@@
Kak@@
vocal
Dimensionen
emotions
Anleger
Reda@@
rats@@
Evans
Donau@@
Vinc@@
conversation
ouverne@@
voy
Gewässer
anspruchsvollen
höre
immt
Eingliederung
mangelt
steil
Fußgänger@@
fortun@@
begannen
Business-@@
Standorte
Instand@@
remark
Militär
translators
Beobachtung
Verbündeten
rami@@
1965
aufrecht
Mam@@
democratisation
Unterrich@@
veränderte
excluding
Kampagnen
plen@@
erlei
erweist
Max@@
hion
Tours
Share
Tibetan
BugTraq
jack
weites
pause
cans
lieu
bay@@
mais
Various
xing
ärz@@
1,000
nationality
oul
slave
gangs@@
Vizepräsidentin
flexibler
Seitdem
rout@@
ister
typen
realities
richtete
anfän@@
Konz@@
junior
POR@@
warme
Gebiet@@
Send@@
vertrete
coup
Wechselkur@@
deter@@
illegally
Rücktritt
guy
sixth
barri@@
enswerten
dut@@
kombinieren
Link@@
ASE
aband@@
ol-@@
Göteborg
herbeizuführen
ziehungs@@
phenomena
Seu@@
college
Öffentliche
Miguel
unberühr@@
thy@@
schränken
Einstimmigkeit
rics
fabrik
later@@
Asy@@
vertik@@
sofar
Tätigkeits@@
eingetragen
Lite
broke
under-@@
grundsätzliche
charging
14th
üblicherweise
Minde@@
gratu@@
ethics
Sün@@
Handbuch
übersehen
wäsche
Brit@@
Jesolo
Mandriva
trug
Jas@@
Gastronomie
gespannt
tiques
kammer@@
wholeheartedly
pumps
thema
Geschäftsführer
Liga
Lee
Kreis@@
lifetime
indert
Knowledge
predomin@@
Lyn@@
erner
ASPs
persistent
operativen
enjo@@
achie@@
Süß@@
niedrigeren
Law@@
disappointing
Parlament@@
erklärung
och
tap
NGL-Fraktion
drawings
sphase
à-@@
Mitgliedsländern
Rats
attracted
Pflan@@
And@@
precedent
catalo@@
wunderbar
hten
populated
begehen
int@@
marken
Durchbruch
Day@@
auber@@
own@@
trigger
showers
Erwärmung
Flugzeug@@
lenstoff@@
conservative
ld
sätz@@
konsu@@
sp
fuhr@@
atics
glichkeiten
ethischen
gations
kümmert
Servers
Walking
Alumini@@
strecken
C.@@
mom@@
Best@@
konzentri@@
hun@@
versatile
itiner@@
Luftverkehrs@@
severely
setzbar
Upper
incoming
zusätz@@
vocation
tnismäßig
Bestand
dish@@
Around
tones
process@@
entre
expects
ghted
verweigern
Paket@@
Lieutenant
Residenz
negoti@@
geograf@@
ANT@@
Code@@
Akt
Umstrukturi@@
Rosa
defect
4000
blieben
Behinderung
superv@@
nia
Konzeption
itar@@
willigung
DER@@
shaushal@@
Kampfes
liers
sammelt
business@@
realistische
gnügen
einzigartiges
äuft
Follow
zwingt
inserted
beanspru@@
Verbesser@@
Kriege
riff
shapes
console
9.00
contribut@@
Steinberg
Entla@@
bere@@
Miner@@
schwarz
Informationsaustausch
spunkt
Investitionsbank
Zoo
ehren@@
[...]
